{
  "version": "1.0",
  "truncation": null,
  "padding": null,
  "added_tokens": [
    {
      "id": 0,
      "content": "[UNK]",
      "single_word": false,
      "lstrip": false,
      "rstrip": false,
      "normalized": false,
      "special": true
    },
    {
      "id": 1,
      "content": "[PAD]",
      "single_word": false,
      "lstrip": false,
      "rstrip": false,
      "normalized": false,
      "special": true
    },
    {
      "id": 2,
      "content": "[CLS]",
      "single_word": false,
      "lstrip": false,
      "rstrip": false,
      "normalized": false,
      "special": true
    },
    {
      "id": 3,
      "content": "[SEP]",
      "single_word": false,
      "lstrip": false,
      "rstrip": false,
      "normalized": false,
      "special": true
    },
    {
      "id": 4,
      "content": "[MASK]",
      "single_word": false,
      "lstrip": false,
      "rstrip": false,
      "normalized": false,
      "special": true
    }
  ],
  "normalizer": {
    "type": "Sequence",
    "normalizers": [
      {
        "type": "Replace",
        "pattern": {
          "Regex": "[\\p{Other}&&[^\\n\\t\\r]]"
        },
        "content": ""
      },
      {
        "type": "Replace",
        "pattern": {
          "Regex": "[\\s]"
        },
        "content": " "
      },
      {
        "type": "Lowercase"
      },
      {
        "type": "NFD"
      },
      {
        "type": "StripAccents"
      }
    ]
  },
  "pre_tokenizer": {
    "type": "Whitespace"
  },
  "post_processor": {
    "type": "TemplateProcessing",
    "single": [
      {
        "SpecialToken": {
          "id": "[CLS]",
          "type_id": 0
        }
      },
      {
        "Sequence": {
          "id": "A",
          "type_id": 0
        }
      },
      {
        "SpecialToken": {
          "id": "[SEP]",
          "type_id": 0
        }
      }
    ],
    "pair": [
      {
        "SpecialToken": {
          "id": "[CLS]",
          "type_id": 0
        }
      },
      {
        "Sequence": {
          "id": "A",
          "type_id": 0
        }
      },
      {
        "SpecialToken": {
          "id": "[SEP]",
          "type_id": 0
        }
      },
      {
        "Sequence": {
          "id": "B",
          "type_id": 1
        }
      },
      {
        "SpecialToken": {
          "id": "[SEP]",
          "type_id": 1
        }
      }
    ],
    "special_tokens": {
      "[CLS]": {
        "id": "[CLS]",
        "ids": [
          2
        ],
        "tokens": [
          "[CLS]"
        ]
      },
      "[SEP]": {
        "id": "[SEP]",
        "ids": [
          3
        ],
        "tokens": [
          "[SEP]"
        ]
      }
    }
  },
  "decoder": {
    "type": "WordPiece",
    "prefix": "##",
    "cleanup": true
  },
  "model": {
    "type": "WordPiece",
    "unk_token": "[UNK]",
    "continuing_subword_prefix": "##",
    "max_input_chars_per_word": 100,
    "vocab": {
      "[UNK]": 0,
      "[PAD]": 1,
      "[CLS]": 2,
      "[SEP]": 3,
      "[MASK]": 4,
      "!": 5,
      "\"": 6,
      "'": 7,
      "(": 8,
      ")": 9,
      ",": 10,
      "-": 11,
      ".": 12,
      "/": 13,
      "0": 14,
      "1": 15,
      "2": 16,
      "3": 17,
      "4": 18,
      "5": 19,
      "6": 20,
      "9": 21,
      ":": 22,
      ";": 23,
      "=": 24,
      "?": 25,
      "[": 26,
      "]": 27,
      "a": 28,
      "b": 29,
      "c": 30,
      "d": 31,
      "e": 32,
      "f": 33,
      "g": 34,
      "h": 35,
      "i": 36,
      "j": 37,
      "k": 38,
      "l": 39,
      "m": 40,
      "n": 41,
      "o": 42,
      "p": 43,
      "q": 44,
      "r": 45,
      "s": 46,
      "t": 47,
      "u": 48,
      "v": 49,
      "w": 50,
      "x": 51,
      "y": 52,
      "z": 53,
      "##t": 54,
      "##e": 55,
      "##a": 56,
      "##l": 57,
      "##y": 58,
      "##b": 59,
      "##o": 60,
      "##i": 61,
      "##n": 62,
      "##d": 63,
      "##m": 64,
      "##c": 65,
      "##k": 66,
      "##u": 67,
      "##g": 68,
      "##h": 69,
      "##p": 70,
      "##v": 71,
      "##s": 72,
      "##r": 73,
      "##w": 74,
      "##\"": 75,
      "##j": 76,
      "##f": 77,
      "##q": 78,
      "##z": 79,
      "##x": 80,
      "##0": 81,
      "##1": 82,
      "##5": 83,
      "##(": 84,
      "##=": 85,
      "##]": 86,
      "##-": 87,
      "##)": 88,
      "##;": 89,
      "##,": 90,
      "##/": 91,
      "##?": 92,
      "th": 93,
      "##er": 94,
      "##ou": 95,
      "the": 96,
      "##nd": 97,
      "##in": 98,
      "##at": 99,
      "##ar": 100,
      "##or": 101,
      "##me": 102,
      "##ll": 103,
      "##is": 104,
      "and": 105,
      "##en": 106,
      "##et": 107,
      "to": 108,
      "##th": 109,
      "##es": 110,
      "##an": 111,
      "##on": 112,
      "##ed": 113,
      "##ome": 114,
      "wi": 115,
      "##ing": 116,
      "no": 117,
      "##ve": 118,
      "wh": 119,
      "##se": 120,
      "you": 121,
      "##ur": 122,
      "sh": 123,
      "##ut": 124,
      "of": 125,
      "##ul": 126,
      "##ea": 127,
      "##ay": 128,
      "be": 129,
      "my": 130,
      "in": 131,
      "that": 132,
      "##st": 133,
      "is": 134,
      "##ce": 135,
      "##ch": 136,
      "rome": 137,
      "romeo": 138,
      "##ow": 139,
      "##gh": 140,
      "me": 141,
      "thou": 142,
      "##ir": 143,
      "with": 144,
      "for": 145,
      "##ere": 146,
      "##ri": 147,
      "ha": 148,
      "##ld": 149,
      "he": 150,
      "not": 151,
      "st": 152,
      "##oo": 153,
      "##al": 154,
      "##ght": 155,
      "la": 156,
      "li": 157,
      "##re": 158,
      "it": 159,
      "##le": 160,
      "##it": 161,
      "this": 162,
      "ca": 163,
      ".]": 164,
      "lo": 165,
      "##ath": 166,
      "as": 167,
      "##nt": 168,
      "so": 169,
      "##id": 170,
      "##iet": 171,
      "jul": 172,
      "but": 173,
      "##io": 174,
      "juliet": 175,
      "her": 176,
      "we": 177,
      "do": 178,
      "thy": 179,
      "##ro": 180,
      "what": 181,
      "ma": 182,
      "de": 183,
      "##==": 184,
      "##ke": 185,
      "on": 186,
      "##all": 187,
      "an": 188,
      "nur": 189,
      "##ain": 190,
      "##dy": 191,
      "nurse": 192,
      "##ight": 193,
      "##ck": 194,
      "will": 195,
      "love": 196,
      "hi": 197,
      "##ly": 198,
      "##ent": 199,
      "his": 200,
      "cap": 201,
      "she": 202,
      "##ulet": 203,
      "capulet": 204,
      "thee": 205,
      "##est": 206,
      "go": 207,
      "##ag": 208,
      "##ore": 209,
      "##ould": 210,
      "come": 211,
      "have": 212,
      "##ood": 213,
      "##ee": 214,
      "##--": 215,
      "ch": 216,
      "##ence": 217,
      "by": 218,
      "fri": 219,
      "##ear": 220,
      "##as": 221,
      "man": 222,
      "mu": 223,
      "pr": 224,
      "lady": 225,
      "fa": 226,
      "him": 227,
      "par": 228,
      "##ver": 229,
      "##ra": 230,
      "your": 231,
      "mer": 232,
      "su": 233,
      "shall": 234,
      "all": 235,
      "##ess": 236,
      "up": 237,
      "##ol": 238,
      "##ue": 239,
      "ex": 240,
      "##ead": 241,
      "##ther": 242,
      "##alt": 243,
      "##ell": 244,
      "ne": 245,
      "merc": 246,
      "sp": 247,
      "##ord": 248,
      "##one": 249,
      "sa": 250,
      "##rom": 251,
      "friar": 252,
      "there": 253,
      "here": 254,
      "ll": 255,
      "ty": 256,
      "from": 257,
      "##utio": 258,
      "mercutio": 259,
      "good": 260,
      ".--": 261,
      "##ter": 262,
      "##ous": 263,
      "then": 264,
      "##nter": 265,
      "##balt": 266,
      "##mp": 267,
      "tybalt": 268,
      "ben": 269,
      "or": 270,
      "law": 271,
      "if": 272,
      "##vol": 273,
      "co": 274,
      "sw": 275,
      "##ill": 276,
      "night": 277,
      "now": 278,
      "benvol": 279,
      "benvolio": 280,
      "enter": 281,
      "ho": 282,
      "kn": 283,
      "##man": 284,
      "ar": 285,
      "at": 286,
      "they": 287,
      "##ine": 288,
      "mo": 289,
      "##fe": 290,
      "##il": 291,
      "death": 292,
      "am": 293,
      "bl": 294,
      "let": 295,
      "##ion": 296,
      "##ich": 297,
      "can": 298,
      "##ving": 299,
      "mar": 300,
      "##row": 301,
      "##rence": 302,
      "##ate": 303,
      "lawrence": 304,
      "##our": 305,
      "hear": 306,
      "##mb": 307,
      "are": 308,
      "more": 309,
      "bo": 310,
      "say": 311,
      "tr": 312,
      "##ish": 313,
      "##sel": 314,
      "##====": 315,
      "some": 316,
      "##ive": 317,
      "where": 318,
      "exit": 319,
      "hath": 320,
      "our": 321,
      "re": 322,
      "sir": 323,
      "ta": 324,
      "##end": 325,
      "##ers": 326,
      "##ont": 327,
      "which": 328,
      "##ic": 329,
      "too": 330,
      "mad": 331,
      "one": 332,
      "day": 333,
      "how": 334,
      "##ack": 335,
      "paris": 336,
      "al": 337,
      "##ime": 338,
      "##ound": 339,
      "well": 340,
      "out": 341,
      "would": 342,
      "##and": 343,
      "than": 344,
      "ear": 345,
      "po": 346,
      "##pp": 347,
      "##are": 348,
      "##ie": 349,
      "##ind": 350,
      "##us": 351,
      "##ry": 352,
      "##ant": 353,
      "who": 354,
      "##ook": 355,
      "un": 356,
      "##un": 357,
      "##ort": 358,
      "##ure": 359,
      "art": 360,
      "see": 361,
      "was": 362,
      "sc": 363,
      "ser": 364,
      "##ame": 365,
      "##ven": 366,
      "##ince": 367,
      "dead": 368,
      "ey": 369,
      "##ep": 370,
      "when": 371,
      "may": 372,
      "##fore": 373,
      "their": 374,
      "##eak": 375,
      "fair": 376,
      "##ontag": 377,
      "montag": 378,
      "pl": 379,
      "should": 380,
      "##age": 381,
      "##self": 382,
      "ag": 383,
      "hea": 384,
      "##ful": 385,
      "ab": 386,
      "en": 387,
      "doth": 388,
      "did": 389,
      "give": 390,
      "yet": 391,
      "know": 392,
      "gent": 393,
      "tw": 394,
      "##eet": 395,
      "such": 396,
      "--": 397,
      "con": 398,
      "wor": 399,
      "##ves": 400,
      "##ink": 401,
      "##ong": 402,
      "hast": 403,
      "montague": 404,
      "gentle": 405,
      "sl": 406,
      "tell": 407,
      "upon": 408,
      "sweet": 409,
      "cou": 410,
      "look": 411,
      "qu": 412,
      "wo": 413,
      "##ec": 414,
      "##ge": 415,
      "##ide": 416,
      "dis": 417,
      "jo": 418,
      "time": 419,
      "them": 420,
      "these": 421,
      "prince": 422,
      "dr": 423,
      "tis": 424,
      "##ad": 425,
      "##au": 426,
      "hand": 427,
      "like": 428,
      "must": 429,
      "br": 430,
      "fl": 431,
      "heart": 432,
      "take": 433,
      "serving": 434,
      "fir": 435,
      "gre": 436,
      "##atch": 437,
      "##ard": 438,
      "why": 439,
      "light": 440,
      "mis": 441,
      "##am": 442,
      "##ng": 443,
      "make": 444,
      "aw": 445,
      "ver": 446,
      "were": 447,
      "##ble": 448,
      "##ot": 449,
      "##ps": 450,
      "##out": 451,
      "call": 452,
      "much": 453,
      "again": 454,
      "pet": 455,
      "word": 456,
      "##ment": 457,
      "##urn": 458,
      "speak": 459,
      "ay": 460,
      "##ies": 461,
      "##son": 462,
      "##ouse": 463,
      "##ise": 464,
      "cl": 465,
      "##lt": 466,
      "##sic": 467,
      "##orn": 468,
      "##orrow": 469,
      "stay": 470,
      "##ather": 471,
      "exits": 472,
      "old": 473,
      "beg": 474,
      "god": 475,
      "##ears": 476,
      "music": 477,
      "##raw": 478,
      "heaven": 479,
      "ban": 480,
      "back": 481,
      "pro": 482,
      "us": 483,
      "##ose": 484,
      "##ite": 485,
      "new": 486,
      "=====": 487,
      "lord": 488,
      "men": 489,
      "##ct": 490,
      "str": 491,
      "dear": 492,
      "part": 493,
      "servingman": 494,
      "hence": 495,
      "mine": 496,
      "##ef": 497,
      "##os": 498,
      "##ile": 499,
      "##men": 500,
      "wilt": 501,
      "stand": 502,
      "marri": 503,
      "eyes": 504,
      "first": 505,
      "peter": 506,
      "banish": 507,
      "bed": 508,
      "gra": 509,
      "name": 510,
      "si": 511,
      "wa": 512,
      "##kes": 513,
      "er": 514,
      "father": 515,
      "##ins": 516,
      "##ory": 517,
      "##ance": 518,
      "comes": 519,
      "true": 520,
      "ever": 521,
      "find": 522,
      "##ts": 523,
      "##ings": 524,
      "##aught": 525,
      "bea": 526,
      "gone": 527,
      "hour": 528,
      "house": 529,
      "watch": 530,
      "##ene": 531,
      "##ans": 532,
      "young": 533,
      "being": 534,
      "##ity": 535,
      "scene": 536,
      "count": 537,
      "away": 538,
      "af": 539,
      "des": 540,
      "##ty": 541,
      "##ond": 542,
      "##der": 543,
      "##ved": 544,
      "##ary": 545,
      "had": 546,
      "com": 547,
      ",\"": 548,
      "bri": 549,
      "fear": 550,
      "##ith": 551,
      "##ious": 552,
      "##ust": 553,
      "##well": 554,
      "think": 555,
      "##own": 556,
      "life": 557,
      "samp": 558,
      "very": 559,
      "=======": 560,
      "banished": 561,
      "sampson": 562,
      "cous": 563,
      "die": 564,
      "draw": 565,
      "##el": 566,
      "##ig": 567,
      "##ms": 568,
      "##ger": 569,
      "##ft": 570,
      "##ough": 571,
      "##ark": 572,
      "##thing": 573,
      "##urs": 574,
      "hel": 575,
      "##ale": 576,
      "##alk": 577,
      "maid": 578,
      "therefore": 579,
      "made": 580,
      "madam": 581,
      "earth": 582,
      "musici": 583,
      "cousin": 584,
      "!--": 585,
      "bid": 586,
      "long": 587,
      "other": 588,
      "till": 589,
      "##able": 590,
      "##de": 591,
      "##day": 592,
      "##ress": 593,
      "##wn": 594,
      "##iss": 595,
      "wife": 596,
      "lie": 597,
      "##ree": 598,
      "pray": 599,
      "face": 600,
      "faith": 601,
      "letter": 602,
      "cann": 603,
      "marry": 604,
      "both": 605,
      "two": 606,
      "ad": 607,
      "foo": 608,
      "gri": 609,
      "kee": 610,
      "lea": 611,
      "sou": 612,
      "sle": 613,
      "##tt": 614,
      "##led": 615,
      "##op": 616,
      "##ild": 617,
      "##oud": 618,
      "any": 619,
      "child": 620,
      "friend": 621,
      "holy": 622,
      "mother": 623,
      "woe": 624,
      "joy": 625,
      "##aughter": 626,
      "cannot": 627,
      ".\"": 628,
      "bet": 629,
      "ere": 630,
      "fall": 631,
      "fare": 632,
      "gr": 633,
      "head": 634,
      "nor": 635,
      "nay": 636,
      "put": 637,
      "tears": 638,
      "##ast": 639,
      "##ling": 640,
      "##om": 641,
      "##ice": 642,
      "##ick": 643,
      "##gory": 644,
      "##ss": 645,
      "##ward": 646,
      "##eas": 647,
      "been": 648,
      "before": 649,
      "##ows": 650,
      "##ower": 651,
      "live": 652,
      "need": 653,
      "hold": 654,
      "gregory": 655,
      "beaut": 656,
      "county": 657,
      "farewell": 658,
      "bre": 659,
      "could": 660,
      "down": 661,
      "fo": 662,
      "hon": 663,
      "kins": 664,
      "pea": 665,
      "run": 666,
      "sound": 667,
      "##ap": 668,
      "##ull": 669,
      "##ison": 670,
      "##ang": 671,
      "off": 672,
      "lies": 673,
      "eye": 674,
      "world": 675,
      "drea": 676,
      "married": 677,
      "help": 678,
      "breath": 679,
      "peace": 680,
      "ap": 681,
      "bal": 682,
      "kill": 683,
      "kiss": 684,
      "rest": 685,
      "son": 686,
      "turn": 687,
      "vill": 688,
      "war": 689,
      "##ls": 690,
      "##ock": 691,
      "##ip": 692,
      "##qu": 693,
      "##thas": 694,
      "weep": 695,
      "##aint": 696,
      "never": 697,
      "blood": 698,
      "##mber": 699,
      "poor": 700,
      "balthas": 701,
      "villain": 702,
      "balthasar": 703,
      "cour": 704,
      "own": 705,
      "unt": 706,
      "##te": 707,
      "##tu": 708,
      "##ace": 709,
      "##ier": 710,
      "##ither": 711,
      "##night": 712,
      "##cc": 713,
      "##ho": 714,
      "##ars": 715,
      "##etch": 716,
      "##urch": 717,
      "lips": 718,
      "alone": 719,
      "slain": 720,
      "grave": 721,
      "keep": 722,
      "ah": 723,
      "bes": 724,
      "daughter": 725,
      "hate": 726,
      "ill": 727,
      "mur": 728,
      "ring": 729,
      "sec": 730,
      "talk": 731,
      "wr": 732,
      "wri": 733,
      "##eed": 734,
      "##oth": 735,
      "##ied": 736,
      "##ient": 737,
      "##ned": 738,
      "##per": 739,
      "##ff": 740,
      "thr": 741,
      "int": 742,
      "##ster": 743,
      "##ire": 744,
      "within": 745,
      "happ": 746,
      "aside": 747,
      "soon": 748,
      "dost": 749,
      "church": 750,
      "sun": 751,
      "comp": 752,
      "most": 753,
      "early": 754,
      "quar": 755,
      "grief": 756,
      "bro": 757,
      "el": 758,
      "end": 759,
      "none": 760,
      "per": 761,
      "pre": 762,
      "sin": 763,
      "send": 764,
      "##ove": 765,
      "##other": 766,
      "##morrow": 767,
      "##ks": 768,
      "##king": 769,
      "##sw": 770,
      "##fort": 771,
      "those": 772,
      "tonight": 773,
      "tomorrow": 774,
      "myself": 775,
      "still": 776,
      "another": 777,
      "##ass": 778,
      "many": 779,
      "same": 780,
      "poison": 781,
      "whose": 782,
      "gentleman": 783,
      "mist": 784,
      "news": 785,
      "sleep": 786,
      "kinsman": 787,
      "quarre": 788,
      "?--": 789,
      "bur": 790,
      "best": 791,
      "di": 792,
      "fr": 793,
      "gi": 794,
      "hu": 795,
      "hus": 796,
      "morn": 797,
      "se": 798,
      "sm": 799,
      "tor": 800,
      "use": 801,
      "##less": 802,
      "##band": 803,
      "thurs": 804,
      "##int": 805,
      "nothing": 806,
      "shame": 807,
      "##eal": 808,
      "##east": 809,
      "bear": 810,
      "without": 811,
      "forg": 812,
      "lives": 813,
      "came": 814,
      "makes": 815,
      "##ains": 816,
      "##vers": 817,
      "##ords": 818,
      "said": 819,
      "boy": 820,
      "play": 821,
      "cons": 822,
      "haste": 823,
      "hands": 824,
      "musician": 825,
      "soul": 826,
      "##easure": 827,
      "dream": 828,
      "murder": 829,
      "husband": 830,
      "thursday": 831,
      "app": 832,
      "get": 833,
      "pri": 834,
      "page": 835,
      "wed": 836,
      "##ial": 837,
      "##don": 838,
      "##ud": 839,
      "##up": 840,
      "##use": 841,
      "##vy": 842,
      "##rant": 843,
      "thing": 844,
      "three": 845,
      "##nder": 846,
      "##llow": 847,
      "##ens": 848,
      "##eth": 849,
      "##ange": 850,
      "##ona": 851,
      "wit": 852,
      "##ult": 853,
      "forth": 854,
      "litt": 855,
      "master": 856,
      "mantu": 857,
      "pardon": 858,
      "conf": 859,
      "verona": 860,
      "leave": 861,
      "beauty": 862,
      "else": 863,
      "little": 864,
      "mantua": 865,
      "cell": 866,
      "cont": 867,
      "even": 868,
      "lay": 869,
      "late": 870,
      "pass": 871,
      "rea": 872,
      "ros": 873,
      "set": 874,
      "sil": 875,
      "way": 876,
      "##ting": 877,
      "##em": 878,
      "##ness": 879,
      "##ken": 880,
      "##umb": 881,
      "thine": 882,
      "##atter": 883,
      "##ench": 884,
      "tomb": 885,
      "tong": 886,
      "##anc": 887,
      "show": 888,
      "bec": 889,
      "mean": 890,
      "##oom": 891,
      "##oose": 892,
      "hither": 893,
      "chee": 894,
      "##essed": 895,
      "##fect": 896,
      "reme": 897,
      "##une": 898,
      "about": 899,
      "bring": 900,
      "every": 901,
      "comfort": 902,
      "better": 903,
      "second": 904,
      "happy": 905,
      "mistress": 906,
      "act": 907,
      "fee": 908,
      "full": 909,
      "mon": 910,
      "pale": 911,
      "ret": 912,
      "sit": 913,
      "since": 914,
      "wall": 915,
      "years": 916,
      "##ave": 917,
      "##dd": 918,
      "##mm": 919,
      "##red": 920,
      "##xt": 921,
      "##ats": 922,
      "##ist": 923,
      "wind": 924,
      "shalt": 925,
      "though": 926,
      "thought": 927,
      "fort": 928,
      "##iti": 929,
      "del": 930,
      "high": 931,
      "himself": 932,
      "black": 933,
      "body": 934,
      "alack": 935,
      "##ush": 936,
      "place": 937,
      "gentlemen": 938,
      "##ecary": 939,
      "disc": 940,
      "flower": 941,
      "great": 942,
      "marriage": 943,
      "warrant": 944,
      "quarrel": 945,
      "morning": 946,
      "torch": 947,
      "tongue": 948,
      "bound": 949,
      "cur": 950,
      "done": 951,
      "far": 952,
      "fell": 953,
      "four": 954,
      "hide": 955,
      "ind": 956,
      "kind": 957,
      "min": 958,
      "mind": 959,
      "nat": 960,
      "op": 961,
      "rich": 962,
      "sea": 963,
      "sorrow": 964,
      "va": 965,
      "wise": 966,
      "yond": 967,
      "##ach": 968,
      "##oke": 969,
      "##nsel": 970,
      "##uck": 971,
      "##ump": 972,
      "##hn": 973,
      "##for": 974,
      "##ered": 975,
      "##art": 976,
      "##ised": 977,
      "##ones": 978,
      "##ird": 979,
      "stre": 980,
      "stra": 981,
      "##aline": 982,
      "dev": 983,
      "once": 984,
      "anc": 985,
      "answ": 986,
      "##enty": 987,
      "cha": 988,
      "pres": 989,
      "##ram": 990,
      "sad": 991,
      "saw": 992,
      "move": 993,
      "says": 994,
      "ears": 995,
      "heavy": 996,
      "above": 997,
      "twenty": 998,
      "counsel": 999,
      "disp": 1000,
      "john": 1001,
      "times": 1002,
      "##ause": 1003,
      "calls": 1004,
      "against": 1005,
      "foot": 1006,
      "ground": 1007,
      "follow": 1008,
      "honor": 1009,
      "apoth": 1010,
      "##hold": 1011,
      "besee": 1012,
      "forget": 1013,
      "rosaline": 1014,
      "silver": 1015,
      "because": 1016,
      "straight": 1017,
      "answer": 1018,
      "apothecary": 1019,
      "air": 1020,
      "acc": 1021,
      "book": 1022,
      "care": 1023,
      "cup": 1024,
      "either": 1025,
      "fou": 1026,
      "fight": 1027,
      "fie": 1028,
      "gl": 1029,
      "gu": 1030,
      "hang": 1031,
      "le": 1032,
      "lear": 1033,
      "pur": 1034,
      "res": 1035,
      "sing": 1036,
      "saint": 1037,
      "te": 1038,
      "tri": 1039,
      "under": 1040,
      "##ake": 1041,
      "##oice": 1042,
      "##ming": 1043,
      "##ked": 1044,
      "##ub": 1045,
      "##ument": 1046,
      "##sh": 1047,
      "thus": 1048,
      "##ation": 1049,
      "toward": 1050,
      "##esh": 1051,
      "noble": 1052,
      "youth": 1053,
      "meet": 1054,
      "stir": 1055,
      "stri": 1056,
      "##oody": 1057,
      "last": 1058,
      "##reat": 1059,
      "case": 1060,
      "only": 1061,
      "##ents": 1062,
      "gold": 1063,
      "che": 1064,
      "swear": 1065,
      "sword": 1066,
      "knock": 1067,
      "att": 1068,
      "##rows": 1069,
      "days": 1070,
      "thank": 1071,
      "flow": 1072,
      "wast": 1073,
      "hours": 1074,
      "bride": 1075,
      "##ign": 1076,
      "musicians": 1077,
      "fool": 1078,
      "##ouds": 1079,
      "honest": 1080,
      "unto": 1081,
      "through": 1082,
      "into": 1083,
      "fortune": 1084,
      "indeed": 1085,
      "vault": 1086,
      "ancient": 1087,
      "\"?": 1088,
      "ba": 1089,
      "bit": 1090,
      "bite": 1091,
      "bones": 1092,
      "citi": 1093,
      "dri": 1094,
      "dark": 1095,
      "found": 1096,
      "feast": 1097,
      "gro": 1098,
      "goose": 1099,
      "hur": 1100,
      "less": 1101,
      "might": 1102,
      "opp": 1103,
      "pat": 1104,
      "pil": 1105,
      "past": 1106,
      "ra": 1107,
      "ro": 1108,
      "sight": 1109,
      "val": 1110,
      "vile": 1111,
      "want": 1112,
      "##lc": 1113,
      "##les": 1114,
      "##bed": 1115,
      "##if": 1116,
      "##ife": 1117,
      "##ning": 1118,
      "##ues": 1119,
      "##vent": 1120,
      "##som": 1121,
      "things": 1122,
      "##iness": 1123,
      "##ors": 1124,
      "shri": 1125,
      "short": 1126,
      "bel": 1127,
      "beat": 1128,
      "means": 1129,
      "having": 1130,
      "lad": 1131,
      "lament": 1132,
      "loving": 1133,
      "sole": 1134,
      "welc": 1135,
      "mas": 1136,
      "dep": 1137,
      "anon": 1138,
      "hie": 1139,
      "merry": 1140,
      "sub": 1141,
      "supp": 1142,
      "exc": 1143,
      "##oney": 1144,
      "cold": 1145,
      "bosom": 1146,
      "rem": 1147,
      "rep": 1148,
      "alas": 1149,
      "##ortal": 1150,
      "enough": 1151,
      "enem": 1152,
      "woes": 1153,
      "##ect": 1154,
      "dist": 1155,
      "fire": 1156,
      "close": 1157,
      "clouds": 1158,
      "begone": 1159,
      "sick": 1160,
      "aff": 1161,
      "after": 1162,
      "desp": 1163,
      "desper": 1164,
      "woeful": 1165,
      "writ": 1166,
      "compan": 1167,
      "brother": 1168,
      "confess": 1169,
      "##fection": 1170,
      "return": 1171,
      "chamber": 1172,
      "citiz": 1173,
      "welcome": 1174,
      "desperate": 1175,
      "burn": 1176,
      "cor": 1177,
      "cut": 1178,
      "cry": 1179,
      "dar": 1180,
      "den": 1181,
      "dag": 1182,
      "fe": 1183,
      "fing": 1184,
      "fetch": 1185,
      "gir": 1186,
      "gall": 1187,
      "home": 1188,
      "hit": 1189,
      "jest": 1190,
      "measure": 1191,
      "near": 1192,
      "over": 1193,
      "ph": 1194,
      "pal": 1195,
      "read": 1196,
      "side": 1197,
      "tend": 1198,
      "ve": 1199,
      "##ew": 1200,
      "##az": 1201,
      "##be": 1202,
      "##iv": 1203,
      "##ding": 1204,
      "##cle": 1205,
      "##ug": 1206,
      "##gn": 1207,
      "##gth": 1208,
      "##ged": 1209,
      "##hile": 1210,
      "##sand": 1211,
      "##ru": 1212,
      "thumb": 1213,
      "##atis": 1214,
      "##ength": 1215,
      "##ets": 1216,
      "sha": 1217,
      "shows": 1218,
      "##ease": 1219,
      "behold": 1220,
      "thousand": 1221,
      "stars": 1222,
      "lovers": 1223,
      "soft": 1224,
      "wear": 1225,
      "thyself": 1226,
      "##ained": 1227,
      "char": 1228,
      "pret": 1229,
      "##rah": 1230,
      "sus": 1231,
      "sudd": 1232,
      "next": 1233,
      "hot": 1234,
      "hop": 1235,
      "arm": 1236,
      "moved": 1237,
      "blessed": 1238,
      "bloody": 1239,
      "canst": 1240,
      "mark": 1241,
      "##rown": 1242,
      "abram": 1243,
      "env": 1244,
      "looks": 1245,
      "quick": 1246,
      "drink": 1247,
      "flesh": 1248,
      "servingmen": 1249,
      "awhile": 1250,
      "words": 1251,
      "begin": 1252,
      "##osed": 1253,
      "simp": 1254,
      "fearful": 1255,
      "##ape": 1256,
      "killed": 1257,
      "wretch": 1258,
      "giving": 1259,
      "remember": 1260,
      "feel": 1261,
      "beseech": 1262,
      "attend": 1263,
      "corse": 1264,
      "dagger": 1265,
      "tender": 1266,
      "##atisf": 1267,
      "sudden": 1268,
      "bow": 1269,
      "cr": 1270,
      "car": 1271,
      "cri": 1272,
      "crow": 1273,
      "cords": 1274,
      "dou": 1275,
      "dry": 1276,
      "dies": 1277,
      "doom": 1278,
      "emp": 1279,
      "east": 1280,
      "fur": 1281,
      "fain": 1282,
      "five": 1283,
      "imp": 1284,
      "lead": 1285,
      "lark": 1286,
      "match": 1287,
      "morrow": 1288,
      "matter": 1289,
      "pen": 1290,
      "power": 1291,
      "ran": 1292,
      "right": 1293,
      "sk": 1294,
      "satisf": 1295,
      "tut": 1296,
      "tale": 1297,
      "vow": 1298,
      "wer": 1299,
      "woo": 1300,
      "wish": 1301,
      "wound": 1302,
      "weak": 1303,
      "walk": 1304,
      "##ase": 1305,
      "##yard": 1306,
      "##bt": 1307,
      "##ost": 1308,
      "##ior": 1309,
      "##ike": 1310,
      "##ners": 1311,
      "##mit": 1312,
      "##uc": 1313,
      "##hy": 1314,
      "##rea": 1315,
      "##jur": 1316,
      "##ined": 1317,
      "##med": 1318,
      "##mend": 1319,
      "##omen": 1320,
      "wild": 1321,
      "noise": 1322,
      "shut": 1323,
      "##ute": 1324,
      "oft": 1325,
      "##each": 1326,
      "beh": 1327,
      "##stant": 1328,
      "##ghs": 1329,
      "star": 1330,
      "stop": 1331,
      "##oof": 1332,
      "##rew": 1333,
      "itself": 1334,
      "herself": 1335,
      "dog": 1336,
      "deep": 1337,
      "proud": 1338,
      "exile": 1339,
      "spoke": 1340,
      "cond": 1341,
      "hoar": 1342,
      "knife": 1343,
      "among": 1344,
      "tru": 1345,
      "trust": 1346,
      "sirrah": 1347,
      "took": 1348,
      "unless": 1349,
      "##unk": 1350,
      "wash": 1351,
      "serve": 1352,
      "age": 1353,
      "didst": 1354,
      "gentlew": 1355,
      "##ade": 1356,
      "break": 1357,
      "breast": 1358,
      "speaks": 1359,
      "prove": 1360,
      "strange": 1361,
      "strength": 1362,
      "banishment": 1363,
      "sign": 1364,
      "hadst": 1365,
      "bright": 1366,
      "brief": 1367,
      "maids": 1368,
      "maiden": 1369,
      "slew": 1370,
      "foe": 1371,
      "kisses": 1372,
      "court": 1373,
      "##teen": 1374,
      "churchyard": 1375,
      "prep": 1376,
      "div": 1377,
      "gives": 1378,
      "seen": 1379,
      "prick": 1380,
      "reason": 1381,
      "cheek": 1382,
      "cheeks": 1383,
      "monument": 1384,
      "fourteen": 1385,
      "nature": 1386,
      "open": 1387,
      "present": 1388,
      "guest": 1389,
      "temp": 1390,
      "cheer": 1391,
      "flowers": 1392,
      "hurt": 1393,
      "enemy": 1394,
      "company": 1395,
      "citizens": 1396,
      "girl": 1397,
      "envious": 1398,
      "?\"": 1399,
      "brow": 1400,
      "braw": 1401,
      "cro": 1402,
      "cra": 1403,
      "civ": 1404,
      "dro": 1405,
      "dare": 1406,
      "dam": 1407,
      "dance": 1408,
      "ent": 1409,
      "ease": 1410,
      "fish": 1411,
      "gho": 1412,
      "hare": 1413,
      "lent": 1414,
      "met": 1415,
      "money": 1416,
      "mortal": 1417,
      "nine": 1418,
      "prom": 1419,
      "pite": 1420,
      "ru": 1421,
      "rough": 1422,
      "sent": 1423,
      "sear": 1424,
      "sure": 1425,
      "ter": 1426,
      "tre": 1427,
      "tear": 1428,
      "tort": 1429,
      "vis": 1430,
      "ven": 1431,
      "vir": 1432,
      "vial": 1433,
      "voice": 1434,
      "wings": 1435,
      "wench": 1436,
      "##tion": 1437,
      "##time": 1438,
      "##air": 1439,
      "##lf": 1440,
      "##lic": 1441,
      "##bs": 1442,
      "##ber": 1443,
      "##bear": 1444,
      "##og": 1445,
      "##over": 1446,
      "##ience": 1447,
      "##ift": 1448,
      "##ner": 1449,
      "##nes": 1450,
      "##name": 1451,
      "##draw": 1452,
      "##mn": 1453,
      "##cious": 1454,
      "##um": 1455,
      "##uff": 1456,
      "##gs": 1457,
      "##gri": 1458,
      "##hood": 1459,
      "##head": 1460,
      "##ron": 1461,
      "##xed": 1462,
      "third": 1463,
      "##nds": 1464,
      "##att": 1465,
      "##orus": 1466,
      "##ister": 1467,
      "##ened": 1468,
      "##ense": 1469,
      "town": 1470,
      "##ons": 1471,
      "##omed": 1472,
      "wits": 1473,
      "while": 1474,
      "shr": 1475,
      "shape": 1476,
      "inter": 1477,
      "##str": 1478,
      "##stance": 1479,
      "##chio": 1480,
      "meant": 1481,
      "##irit": 1482,
      "withal": 1483,
      "withdraw": 1484,
      "form": 1485,
      "forsw": 1486,
      "hair": 1487,
      "half": 1488,
      "hell": 1489,
      "heir": 1490,
      "stee": 1491,
      "state": 1492,
      "laid": 1493,
      "living": 1494,
      "##leep": 1495,
      "##itch": 1496,
      "##ition": 1497,
      "cause": 1498,
      "loath": 1499,
      "ask": 1500,
      "asleep": 1501,
      "dove": 1502,
      "##roach": 1503,
      "dew": 1504,
      "anger": 1505,
      "capulets": 1506,
      "going": 1507,
      "chide": 1508,
      "chorus": 1509,
      "##ash": 1510,
      "yourself": 1511,
      "##uel": 1512,
      "mercy": 1513,
      "spr": 1514,
      "speed": 1515,
      "spirit": 1516,
      "sail": 1517,
      "moon": 1518,
      "##feit": 1519,
      "##iles": 1520,
      "blind": 1521,
      "##ished": 1522,
      "sometime": 1523,
      "wherefore": 1524,
      "alrea": 1525,
      "##imely": 1526,
      "point": 1527,
      "##ants": 1528,
      "unw": 1529,
      "uncle": 1530,
      "scar": 1531,
      "scorn": 1532,
      "montagues": 1533,
      "pleasure": 1534,
      "knowest": 1535,
      "slay": 1536,
      "slow": 1537,
      "slaughter": 1538,
      "quoth": 1539,
      "woman": 1540,
      "hearts": 1541,
      "green": 1542,
      "petru": 1543,
      "begg": 1544,
      "grace": 1545,
      "sighs": 1546,
      "wake": 1547,
      "affection": 1548,
      "commend": 1549,
      "draws": 1550,
      "longer": 1551,
      "letters": 1552,
      "adv": 1553,
      "##tten": 1554,
      "friends": 1555,
      "joyful": 1556,
      "heads": 1557,
      "##ickle": 1558,
      "dreams": 1559,
      "warm": 1560,
      "untimely": 1561,
      "##temp": 1562,
      "written": 1563,
      "hum": 1564,
      "consent": 1565,
      "consort": 1566,
      "wedding": 1567,
      "##udge": 1568,
      "ready": 1569,
      "delight": 1570,
      "fellow": 1571,
      "wisely": 1572,
      "yonder": 1573,
      "honorable": 1574,
      "cupid": 1575,
      "##ship": 1576,
      "strike": 1577,
      "bitter": 1578,
      "patience": 1579,
      "pilgri": 1580,
      "shrift": 1581,
      "ladies": 1582,
      "lamentable": 1583,
      "mask": 1584,
      "depart": 1585,
      "excuse": 1586,
      "deny": 1587,
      "fingers": 1588,
      "pretty": 1589,
      "hope": 1590,
      "quickly": 1591,
      "simple": 1592,
      "satisfied": 1593,
      "truth": 1594,
      "prepare": 1595,
      "civil": 1596,
      "ghost": 1597,
      "piteous": 1598,
      "rude": 1599,
      "search": 1600,
      "already": 1601,
      "slaughtered": 1602,
      "petruchio": 1603,
      "!)": 1604,
      "),": 1605,
      "amen": 1606,
      "bir": 1607,
      "bare": 1608,
      "bus": 1609,
      "bad": 1610,
      "born": 1611,
      "big": 1612,
      "bird": 1613,
      "cir": 1614,
      "cal": 1615,
      "cle": 1616,
      "city": 1617,
      "creat": 1618,
      "det": 1619,
      "dir": 1620,
      "date": 1621,
      "dwell": 1622,
      "fat": 1623,
      "fal": 1624,
      "fly": 1625,
      "fine": 1626,
      "free": 1627,
      "fier": 1628,
      "gave": 1629,
      "hood": 1630,
      "hous": 1631,
      "hard": 1632,
      "hark": 1633,
      "imm": 1634,
      "iron": 1635,
      "just": 1636,
      "jeal": 1637,
      "lest": 1638,
      "lend": 1639,
      "lef": 1640,
      "med": 1641,
      "mouse": 1642,
      "occ": 1643,
      "odd": 1644,
      "pay": 1645,
      "pain": 1646,
      "pers": 1647,
      "pie": 1648,
      "rid": 1649,
      "rate": 1650,
      "rage": 1651,
      "rather": 1652,
      "rose": 1653,
      "rop": 1654,
      "rap": 1655,
      "sme": 1656,
      "sell": 1657,
      "sour": 1658,
      "sings": 1659,
      "tou": 1660,
      "tree": 1661,
      "ut": 1662,
      "ur": 1663,
      "vio": 1664,
      "vain": 1665,
      "wis": 1666,
      "wea": 1667,
      "women": 1668,
      "yea": 1669,
      "year": 1670,
      "##tre": 1671,
      "##tain": 1672,
      "##ak": 1673,
      "##light": 1674,
      "##oy": 1675,
      "##oon": 1676,
      "##oman": 1677,
      "##igh": 1678,
      "##iest": 1679,
      "##imb": 1680,
      "##ived": 1681,
      "##den": 1682,
      "##dle": 1683,
      "##dom": 1684,
      "##most": 1685,
      "##ces": 1686,
      "##con": 1687,
      "##ced": 1688,
      "##ume": 1689,
      "##ued": 1690,
      "##ught": 1691,
      "##uit": 1692,
      "##gr": 1693,
      "##ging": 1694,
      "##ha": 1695,
      "##hrew": 1696,
      "##pear": 1697,
      "##pect": 1698,
      "##sed": 1699,
      "##some": 1700,
      "##ret": 1701,
      "##rary": 1702,
      "##we": 1703,
      "##jure": 1704,
      "thither": 1705,
      "##ought": 1706,
      "##ount": 1707,
      "##ints": 1708,
      "##ates": 1709,
      "##orth": 1710,
      "##ored": 1711,
      "##lls": 1712,
      "##eds": 1713,
      "shar": 1714,
      "##uly": 1715,
      "##eaf": 1716,
      "##cher": 1717,
      "note": 1718,
      "sta": 1719,
      "stumb": 1720,
      "lau": 1721,
      "lamb": 1722,
      "##ited": 1723,
      "lod": 1724,
      "lover": 1725,
      "loves": 1726,
      "loss": 1727,
      "ass": 1728,
      "sold": 1729,
      "hers": 1730,
      "def": 1731,
      "##allow": 1732,
      "ange": 1733,
      "goes": 1734,
      "goss": 1735,
      "##agon": 1736,
      "chang": 1737,
      "change": 1738,
      "press": 1739,
      "fault": 1740,
      "summ": 1741,
      "exp": 1742,
      "exce": 1743,
      "extre": 1744,
      "spite": 1745,
      "save": 1746,
      "sake": 1747,
      "orname": 1748,
      "coz": 1749,
      "cock": 1750,
      "cover": 1751,
      "swords": 1752,
      "swift": 1753,
      "nightly": 1754,
      "knave": 1755,
      "moves": 1756,
      "##iled": 1757,
      "bless": 1758,
      "blush": 1759,
      "##ately": 1760,
      "bold": 1761,
      "something": 1762,
      "rev": 1763,
      "tast": 1764,
      "takes": 1765,
      "daylight": 1766,
      "along": 1767,
      "##ounds": 1768,
      "wouldst": 1769,
      "post": 1770,
      "##pping": 1771,
      "##ieu": 1772,
      "##ieve": 1773,
      "whom": 1774,
      "##ung": 1775,
      "seek": 1776,
      "seeing": 1777,
      "seeming": 1778,
      "plag": 1779,
      "enc": 1780,
      "known": 1781,
      "conjure": 1782,
      "worn": 1783,
      "worm": 1784,
      "work": 1785,
      "##inks": 1786,
      "counter": 1787,
      "quiet": 1788,
      "womb": 1789,
      "joint": 1790,
      "drunk": 1791,
      "miser": 1792,
      "heavens": 1793,
      "hencefor": 1794,
      "##osition": 1795,
      "stands": 1796,
      "names": 1797,
      "waking": 1798,
      "##kespear": 1799,
      "beast": 1800,
      "desce": 1801,
      "comm": 1802,
      "coming": 1803,
      "##ustomed": 1804,
      "##els": 1805,
      "##ursed": 1806,
      "others": 1807,
      "##ression": 1808,
      "adieu": 1809,
      "keeps": 1810,
      "sought": 1811,
      "anything": 1812,
      "falls": 1813,
      "gray": 1814,
      "needs": 1815,
      "kinsmen": 1816,
      "weeps": 1817,
      "weeping": 1818,
      "course": 1819,
      "beshrew": 1820,
      "hateful": 1821,
      "secret": 1822,
      "wrong": 1823,
      "##ffer": 1824,
      "thrust": 1825,
      "intents": 1826,
      "griefs": 1827,
      "broad": 1828,
      "perfor": 1829,
      "precious": 1830,
      "bury": 1831,
      "buried": 1832,
      "fray": 1833,
      "murdered": 1834,
      "approach": 1835,
      "##anced": 1836,
      "fellows": 1837,
      "minute": 1838,
      "strew": 1839,
      "streets": 1840,
      "sadness": 1841,
      "foul": 1842,
      "fought": 1843,
      "glad": 1844,
      "learn": 1845,
      "learned": 1846,
      "purp": 1847,
      "golden": 1848,
      "baw": 1849,
      "groan": 1850,
      "##venture": 1851,
      "believe": 1852,
      "solemn": 1853,
      "supper": 1854,
      "remove": 1855,
      "dares": 1856,
      "palm": 1857,
      "veins": 1858,
      "##aze": 1859,
      "shakespear": 1860,
      "wretched": 1861,
      "carri": 1862,
      "doubt": 1863,
      "empty": 1864,
      "gentlewoman": 1865,
      "signior": 1866,
      "guests": 1867,
      "cross": 1868,
      "damned": 1869,
      "torture": 1870,
      "virtu": 1871,
      "forsworn": 1872,
      "steel": 1873,
      "humor": 1874,
      "ghostly": 1875,
      "birth": 1876,
      "fatal": 1877,
      "houses": 1878,
      "jealous": 1879,
      "left": 1880,
      "touch": 1881,
      "utter": 1882,
      "viol": 1883,
      "wisdom": 1884,
      "weap": 1885,
      "ornament": 1886,
      "!\"": 1887,
      "ach": 1888,
      "afore": 1889,
      "bu": 1890,
      "ble": 1891,
      "bra": 1892,
      "borrow": 1893,
      "bark": 1894,
      "bud": 1895,
      "brows": 1896,
      "cat": 1897,
      "cook": 1898,
      "cease": 1899,
      "cursed": 1900,
      "din": 1901,
      "dan": 1902,
      "dish": 1903,
      "dump": 1904,
      "dug": 1905,
      "ef": 1906,
      "fi": 1907,
      "fit": 1908,
      "fest": 1909,
      "food": 1910,
      "fol": 1911,
      "fond": 1912,
      "faint": 1913,
      "frown": 1914,
      "fickle": 1915,
      "grow": 1916,
      "gaze": 1917,
      "hid": 1918,
      "hire": 1919,
      "hors": 1920,
      "honey": 1921,
      "im": 1922,
      "jes": 1923,
      "jack": 1924,
      "jud": 1925,
      "lust": 1926,
      "list": 1927,
      "mess": 1928,
      "meth": 1929,
      "ning": 1930,
      "naught": 1931,
      "pe": 1932,
      "pow": 1933,
      "pack": 1934,
      "pure": 1935,
      "purs": 1936,
      "rat": 1937,
      "ris": 1938,
      "rul": 1939,
      "rouse": 1940,
      "rush": 1941,
      "sain": 1942,
      "sep": 1943,
      "sel": 1944,
      "sense": 1945,
      "tid": 1946,
      "tra": 1947,
      "teach": 1948,
      "van": 1949,
      "vit": 1950,
      "vie": 1951,
      "wat": 1952,
      "weal": 1953,
      "wagon": 1954,
      "##test": 1955,
      "##tains": 1956,
      "##ek": 1957,
      "##ees": 1958,
      "##eous": 1959,
      "##ac": 1960,
      "##av": 1961,
      "##ail": 1962,
      "##acc": 1963,
      "##let": 1964,
      "##lth": 1965,
      "##like": 1966,
      "##bor": 1967,
      "##bid": 1968,
      "##oes": 1969,
      "##oved": 1970,
      "##ia": 1971,
      "##ily": 1972,
      "##iver": 1973,
      "##iers": 1974,
      "##iful": 1975,
      "##ixt": 1976,
      "##ne": 1977,
      "##nce": 1978,
      "##now": 1979,
      "##noon": 1980,
      "##ded": 1981,
      "##dal": 1982,
      "##dest": 1983,
      "##ders": 1984,
      "##mine": 1985,
      "##mity": 1986,
      "##mary": 1987,
      "##cl": 1988,
      "##uct": 1989,
      "##uiled": 1990,
      "##gment": 1991,
      "##hend": 1992,
      "##pt": 1993,
      "##pan": 1994,
      "##ping": 1995,
      "##pic": 1996,
      "##vish": 1997,
      "##veth": 1998,
      "##ses": 1999,
      "##ren": 2000,
      "##ray": 2001,
      "##ratch": 2002,
      "##way": 2003,
      "thri": 2004,
      "##eral": 2005,
      "##ounter": 2006,
      "##ounce": 2007,
      "##ndred": 2008,
      "##ining": 2009,
      "##ated": 2010,
      "##ating": 2011,
      "##aring": 2012,
      "##mes": 2013,
      "##isans": 2014,
      "told": 2015,
      "toil": 2016,
      "toad": 2017,
      "today": 2018,
      "##esy": 2019,
      "##ony": 2020,
      "##onounce": 2021,
      "##eding": 2022,
      "##edic": 2023,
      "wide": 2024,
      "##ingale": 2025,
      "##vel": 2026,
      "white": 2027,
      "##sequ": 2028,
      "##ured": 2029,
      "##ural": 2030,
      "beats": 2031,
      "inv": 2032,
      "incon": 2033,
      "##stre": 2034,
      "##ceit": 2035,
      "##change": 2036,
      "meat": 2037,
      "forward": 2038,
      "forbid": 2039,
      "##rif": 2040,
      "hap": 2041,
      "ste": 2042,
      "sto": 2043,
      "step": 2044,
      "stint": 2045,
      "steal": 2046,
      "stained": 2047,
      "##ooth": 2048,
      "lain": 2049,
      "lamm": 2050,
      "lick": 2051,
      "liver": 2052,
      "liken": 2053,
      "liber": 2054,
      "##rehend": 2055,
      "cast": 2056,
      "lost": 2057,
      "loved": 2058,
      "logs": 2059,
      "ash": 2060,
      "asked": 2061,
      "jule": 2062,
      "weary": 2063,
      "door": 2064,
      "##roth": 2065,
      "##road": 2066,
      "mab": 2067,
      "making": 2068,
      "dec": 2069,
      "##cks": 2070,
      "##cked": 2071,
      "##entio": 2072,
      "capels": 2073,
      "got": 2074,
      "##agg": 2075,
      "chance": 2076,
      "choose": 2077,
      "##ask": 2078,
      "##asion": 2079,
      "mang": 2080,
      "prison": 2081,
      "proof": 2082,
      "pronounce": 2083,
      "fast": 2084,
      "fail": 2085,
      "yours": 2086,
      "suit": 2087,
      "exchange": 2088,
      "spent": 2089,
      "##tern": 2090,
      "coll": 2091,
      "sworn": 2092,
      "nightingale": 2093,
      "hollow": 2094,
      "knew": 2095,
      "knees": 2096,
      "arise": 2097,
      "modest": 2098,
      "##ilos": 2099,
      "amb": 2100,
      "blows": 2101,
      "##ions": 2102,
      "cank": 2103,
      "hearest": 2104,
      "trou": 2105,
      "tread": 2106,
      "truly": 2107,
      "##========": 2108,
      "rece": 2109,
      "tail": 2110,
      "taking": 2111,
      "##ices": 2112,
      "madman": 2113,
      "alike": 2114,
      "aloof": 2115,
      "almost": 2116,
      "thanks": 2117,
      "poss": 2118,
      "##pped": 2119,
      "##ield": 2120,
      "whole": 2121,
      "unl": 2122,
      "uns": 2123,
      "unf": 2124,
      "unacc": 2125,
      "seems": 2126,
      "scratch": 2127,
      "deadly": 2128,
      "mayst": 2129,
      "pluck": 2130,
      "please": 2131,
      "health": 2132,
      "abroad": 2133,
      "knows": 2134,
      "twas": 2135,
      "worse": 2136,
      "worship": 2137,
      "sland": 2138,
      "slave": 2139,
      "sweetest": 2140,
      "##ects": 2141,
      "joints": 2142,
      "drum": 2143,
      "brain": 2144,
      "flies": 2145,
      "greet": 2146,
      "misad": 2147,
      "##otion": 2148,
      "called": 2149,
      "clock": 2150,
      "club": 2151,
      "closed": 2152,
      "stays": 2153,
      "stayed": 2154,
      "beguiled": 2155,
      "backward": 2156,
      "prol": 2157,
      "prop": 2158,
      "prov": 2159,
      "prof": 2160,
      "protest": 2161,
      "strong": 2162,
      "struck": 2163,
      "partisans": 2164,
      "wax": 2165,
      "household": 2166,
      "watchmen": 2167,
      "bridal": 2168,
      "drawn": 2169,
      "prayer": 2170,
      "faithful": 2171,
      "grie": 2172,
      "##ophy": 2173,
      "children": 2174,
      "betwe": 2175,
      "needy": 2176,
      "beauties": 2177,
      "offer": 2178,
      "apt": 2179,
      "turns": 2180,
      "##ainted": 2181,
      "courte": 2182,
      "compl": 2183,
      "compare": 2184,
      "perjur": 2185,
      "prevent": 2186,
      "burden": 2187,
      "differ": 2188,
      "franc": 2189,
      "hunt": 2190,
      "hundred": 2191,
      "sever": 2192,
      "small": 2193,
      "torment": 2194,
      "dreamt": 2195,
      "murderer": 2196,
      "appear": 2197,
      "apprehend": 2198,
      "wednes": 2199,
      "content": 2200,
      "contrary": 2201,
      "passion": 2202,
      "##attering": 2203,
      "meaning": 2204,
      "remedy": 2205,
      "month": 2206,
      "walls": 2207,
      "window": 2208,
      "thoughts": 2209,
      "delay": 2210,
      "discords": 2211,
      "discover": 2212,
      "torchbear": 2213,
      "curtains": 2214,
      "farther": 2215,
      "kindred": 2216,
      "minstre": 2217,
      "##umph": 2218,
      "devil": 2219,
      "devise": 2220,
      "displ": 2221,
      "beseeming": 2222,
      "airy": 2223,
      "field": 2224,
      "respect": 2225,
      "triumph": 2226,
      "towards": 2227,
      "youthful": 2228,
      "strife": 2229,
      "waste": 2230,
      "bridegr": 2231,
      "oppression": 2232,
      "patient": 2233,
      "raven": 2234,
      "raise": 2235,
      "valor": 2236,
      "wanton": 2237,
      "##ify": 2238,
      "ladder": 2239,
      "substance": 2240,
      "supposed": 2241,
      "distur": 2242,
      "afford": 2243,
      "afternoon": 2244,
      "despised": 2245,
      "confession": 2246,
      "philos": 2247,
      "vexed": 2248,
      "##bey": 2249,
      "charge": 2250,
      "susan": 2251,
      "cruel": 2252,
      "cries": 2253,
      "fury": 2254,
      "import": 2255,
      "wert": 2256,
      "##hyme": 2257,
      "conduct": 2258,
      "washed": 2259,
      "maidenhead": 2260,
      "courtesy": 2261,
      "presently": 2262,
      "craves": 2263,
      "entreat": 2264,
      "tremb": 2265,
      "visor": 2266,
      "venge": 2267,
      "##ogue": 2268,
      "##uffed": 2269,
      "shroud": 2270,
      "meantime": 2271,
      "loathsome": 2272,
      "unworth": 2273,
      "beggar": 2274,
      "affections": 2275,
      "advanced": 2276,
      "pilgrim": 2277,
      "maskers": 2278,
      "business": 2279,
      "circ": 2280,
      "calm": 2281,
      "creature": 2282,
      "direct": 2283,
      "false": 2284,
      "fiery": 2285,
      "immortal": 2286,
      "lends": 2287,
      "occasion": 2288,
      "rosemary": 2289,
      "rapier": 2290,
      "urged": 2291,
      "sharp": 2292,
      "laugh": 2293,
      "changed": 2294,
      "summer": 2295,
      "taste": 2296,
      "plague": 2297,
      "encounter": 2298,
      "counterfeit": 2299,
      "purpose": 2300,
      "bawd": 2301,
      "solemnity": 2302,
      "shakespeare": 2303,
      "virtuous": 2304,
      "violent": 2305,
      "buy": 2306,
      "dinner": 2307,
      "fiend": 2308,
      "horses": 2309,
      "jesu": 2310,
      "judgment": 2311,
      "methinks": 2312,
      "powder": 2313,
      "ruled": 2314,
      "saints": 2315,
      "self": 2316,
      "tidings": 2317,
      "view": 2318,
      "inconstant": 2319,
      "likeness": 2320,
      "liberty": 2321,
      "modesty": 2322,
      "unaccustomed": 2323,
      "between": 2324,
      "courteous": 2325,
      "different": 2326,
      "francis": 2327,
      "wednesday": 2328,
      "bridegroom": 2329,
      "philosophy": 2330,
      "ac": 2331,
      "ant": 2332,
      "aqu": 2333,
      "aught": 2334,
      "bar": 2335,
      "bore": 2336,
      "bone": 2337,
      "band": 2338,
      "bier": 2339,
      "bagg": 2340,
      "bask": 2341,
      "cure": 2342,
      "catch": 2343,
      "corn": 2344,
      "cull": 2345,
      "cats": 2346,
      "doo": 2347,
      "dun": 2348,
      "daught": 2349,
      "dig": 2350,
      "dull": 2351,
      "dire": 2352,
      "deal": 2353,
      "danc": 2354,
      "dram": 2355,
      "dign": 2356,
      "drew": 2357,
      "dash": 2358,
      "duel": 2359,
      "deaf": 2360,
      "ed": 2361,
      "eg": 2362,
      "es": 2363,
      "eve": 2364,
      "est": 2365,
      "ele": 2366,
      "each": 2367,
      "fan": 2368,
      "fle": 2369,
      "fro": 2370,
      "gy": 2371,
      "gor": 2372,
      "gen": 2373,
      "gear": 2374,
      "grows": 2375,
      "grown": 2376,
      "har": 2377,
      "hol": 2378,
      "hung": 2379,
      "id": 2380,
      "jau": 2381,
      "king": 2382,
      "lan": 2383,
      "low": 2384,
      "lour": 2385,
      "lang": 2386,
      "luc": 2387,
      "mou": 2388,
      "mut": 2389,
      "moody": 2390,
      "matt": 2391,
      "nu": 2392,
      "nest": 2393,
      "nie": 2394,
      "nice": 2395,
      "nimb": 2396,
      "ob": 2397,
      "obey": 2398,
      "pin": 2399,
      "pul": 2400,
      "path": 2401,
      "pest": 2402,
      "pun": 2403,
      "port": 2404,
      "pink": 2405,
      "pity": 2406,
      "pier": 2407,
      "pains": 2408,
      "pens": 2409,
      "piti": 2410,
      "pump": 2411,
      "pair": 2412,
      "puff": 2413,
      "que": 2414,
      "red": 2415,
      "ree": 2416,
      "rot": 2417,
      "rite": 2418,
      "rip": 2419,
      "room": 2420,
      "rhyme": 2421,
      "sy": 2422,
      "sur": 2423,
      "sch": 2424,
      "sal": 2425,
      "salt": 2426,
      "sie": 2427,
      "sort": 2428,
      "sink": 2429,
      "song": 2430,
      "seal": 2431,
      "sister": 2432,
      "snow": 2433,
      "ti": 2434,
      "tar": 2435,
      "ten": 2436,
      "ted": 2437,
      "tit": 2438,
      "trow": 2439,
      "tush": 2440,
      "troth": 2441,
      "und": 2442,
      "vest": 2443,
      "vol": 2444,
      "vers": 2445,
      "vice": 2446,
      "win": 2447,
      "went": 2448,
      "west": 2449,
      "ware": 2450,
      "wink": 2451,
      "yes": 2452,
      "yew": 2453,
      "zounds": 2454,
      "##tle": 2455,
      "##tial": 2456,
      "##tiest": 2457,
      "##tpan": 2458,
      "##ae": 2459,
      "##ald": 2460,
      "##act": 2461,
      "##aken": 2462,
      "##len": 2463,
      "##lest": 2464,
      "##lers": 2465,
      "##lot": 2466,
      "##last": 2467,
      "##ying": 2468,
      "##bb": 2469,
      "##bes": 2470,
      "##bout": 2471,
      "##oc": 2472,
      "##old": 2473,
      "##oard": 2474,
      "##ops": 2475,
      "##obed": 2476,
      "##iz": 2477,
      "##iant": 2478,
      "##iance": 2479,
      "##iable": 2480,
      "##iff": 2481,
      "##ivers": 2482,
      "##ixed": 2483,
      "##iately": 2484,
      "##ny": 2485,
      "##nat": 2486,
      "##nel": 2487,
      "##des": 2488,
      "##dow": 2489,
      "##dies": 2490,
      "##dling": 2491,
      "##mal": 2492,
      "##more": 2493,
      "##cal": 2494,
      "##cess": 2495,
      "##cry": 2496,
      "##cover": 2497,
      "##crif": 2498,
      "##und": 2499,
      "##uing": 2500,
      "##unt": 2501,
      "##uish": 2502,
      "##ges": 2503,
      "##her": 2504,
      "##hear": 2505,
      "##hink": 2506,
      "##house": 2507,
      "##hip": 2508,
      "##pl": 2509,
      "##ph": 2510,
      "##ped": 2511,
      "##pir": 2512,
      "##vor": 2513,
      "##vate": 2514,
      "##viness": 2515,
      "##vail": 2516,
      "##ser": 2517,
      "##sol": 2518,
      "##sion": 2519,
      "##sper": 2520,
      "##ror": 2521,
      "##ring": 2522,
      "##rous": 2523,
      "##rage": 2524,
      "##rance": 2525,
      "##wh": 2526,
      "##wood": 2527,
      "##wise": 2528,
      "##wife": 2529,
      "##jour": 2530,
      "##joice": 2531,
      "##full": 2532,
      "##zy": 2533,
      "##zen": 2534,
      "##zel": 2535,
      "thin": 2536,
      "thir": 2537,
      "threat": 2538,
      "##ern": 2539,
      "##erish": 2540,
      "##ertain": 2541,
      "##ermine": 2542,
      "##nday": 2543,
      "##iny": 2544,
      "##ared": 2545,
      "##arch": 2546,
      "##orm": 2547,
      "##orous": 2548,
      "##orable": 2549,
      "##met": 2550,
      "##llen": 2551,
      "##lling": 2552,
      "##llent": 2553,
      "##ision": 2554,
      "##isure": 2555,
      "##enge": 2556,
      "##enger": 2557,
      "tops": 2558,
      "##thest": 2559,
      "##ank": 2560,
      "widow": 2561,
      "nose": 2562,
      "whit": 2563,
      "whence": 2564,
      "whip": 2565,
      "whither": 2566,
      "whist": 2567,
      "##semb": 2568,
      "##urvy": 2569,
      "shed": 2570,
      "share": 2571,
      "shad": 2572,
      "shot": 2573,
      "shown": 2574,
      "shop": 2575,
      "shake": 2576,
      "shoes": 2577,
      "##utch": 2578,
      "##ution": 2579,
      "##utation": 2580,
      "##ular": 2581,
      "##ulcher": 2582,
      "##eam": 2583,
      "##eabout": 2584,
      "bell": 2585,
      "bears": 2586,
      "inf": 2587,
      "inqu": 2588,
      "infection": 2589,
      "injur": 2590,
      "instr": 2591,
      "iss": 2592,
      "##ceived": 2593,
      "##cho": 2594,
      "##char": 2595,
      "##chard": 2596,
      "##chance": 2597,
      "mend": 2598,
      "##irt": 2599,
      "fore": 2600,
      "fors": 2601,
      "force": 2602,
      "foref": 2603,
      "forty": 2604,
      "forbear": 2605,
      "forfeit": 2606,
      "##right": 2607,
      "hall": 2608,
      "hazel": 2609,
      "##lder": 2610,
      "heed": 2611,
      "held": 2612,
      "heel": 2613,
      "stain": 2614,
      "store": 2615,
      "stol": 2616,
      "stone": 2617,
      "stage": 2618,
      "stout": 2619,
      "story": 2620,
      "stick": 2621,
      "stones": 2622,
      "stony": 2623,
      "stuffed": 2624,
      "stiff": 2625,
      "storm": 2626,
      "##oot": 2627,
      "##ool": 2628,
      "lazy": 2629,
      "liv": 2630,
      "limb": 2631,
      "liqu": 2632,
      "limit": 2633,
      "##reed": 2634,
      "##its": 2635,
      "cand": 2636,
      "cave": 2637,
      "log": 2638,
      "lose": 2639,
      "locks": 2640,
      "##athers": 2641,
      "soc": 2642,
      "soar": 2643,
      "##ider": 2644,
      "##ides": 2645,
      "##idence": 2646,
      "butt": 2647,
      "herbs": 2648,
      "hereaf": 2649,
      "herald": 2650,
      "hereabout": 2651,
      "weeds": 2652,
      "week": 2653,
      "doing": 2654,
      "doting": 2655,
      "doors": 2656,
      "mass": 2657,
      "debt": 2658,
      "demes": 2659,
      "deceived": 2660,
      "##allenge": 2661,
      "ang": 2662,
      "nursed": 2663,
      "##aining": 2664,
      "##cking": 2665,
      "##ckled": 2666,
      "lovely": 2667,
      "hild": 2668,
      "##enter": 2669,
      "hist": 2670,
      "sheath": 2671,
      "##estion": 2672,
      "##estable": 2673,
      "gover": 2674,
      "##ags": 2675,
      "##agate": 2676,
      "##eem": 2677,
      "##eeling": 2678,
      "cho": 2679,
      "chol": 2680,
      "chast": 2681,
      "choice": 2682,
      "cherish": 2683,
      "challenge": 2684,
      "fright": 2685,
      "manage": 2686,
      "manners": 2687,
      "manner": 2688,
      "mansion": 2689,
      "muff": 2690,
      "pror": 2691,
      "prates": 2692,
      "favor": 2693,
      "parad": 2694,
      "parents": 2695,
      "##verse": 2696,
      "##verty": 2697,
      "##race": 2698,
      "merch": 2699,
      "merri": 2700,
      "merit": 2701,
      "sum": 2702,
      "sucked": 2703,
      "sullen": 2704,
      "exam": 2705,
      "neck": 2706,
      "neither": 2707,
      "neigh": 2708,
      "merciful": 2709,
      "spy": 2710,
      "spo": 2711,
      "sple": 2712,
      "sport": 2713,
      "spurs": 2714,
      "spake": 2715,
      "spade": 2716,
      "sauc": 2717,
      "sacrif": 2718,
      "tyrant": 2719,
      "thence": 2720,
      "order": 2721,
      "orchard": 2722,
      "comb": 2723,
      "switch": 2724,
      "##ills": 2725,
      "##illed": 2726,
      "knight": 2727,
      "kneeling": 2728,
      "arg": 2729,
      "arms": 2730,
      "armed": 2731,
      "array": 2732,
      "attemp": 2733,
      "moder": 2734,
      "motion": 2735,
      "monday": 2736,
      "##ilest": 2737,
      "##ilty": 2738,
      "amaz": 2739,
      "amorous": 2740,
      "blow": 2741,
      "blad": 2742,
      "bliss": 2743,
      "blub": 2744,
      "blade": 2745,
      "blister": 2746,
      "##ioned": 2747,
      "march": 2748,
      "##ourses": 2749,
      "heard": 2750,
      "hearing": 2751,
      "bott": 2752,
      "sayst": 2753,
      "try": 2754,
      "trans": 2755,
      "trench": 2756,
      "trudge": 2757,
      "ours": 2758,
      "rel": 2759,
      "reb": 2760,
      "ref": 2761,
      "reck": 2762,
      "revol": 2763,
      "reign": 2764,
      "rejoice": 2765,
      "taken": 2766,
      "##ict": 2767,
      "##iced": 2768,
      "##icious": 2769,
      "alive": 2770,
      "aloud": 2771,
      "##imed": 2772,
      "##iment": 2773,
      "outrage": 2774,
      "earl": 2775,
      "potion": 2776,
      "potpan": 2777,
      "poverty": 2778,
      "##ppy": 2779,
      "##ief": 2780,
      "##uses": 2781,
      "##used": 2782,
      "##usion": 2783,
      "##antas": 2784,
      "whoe": 2785,
      "unb": 2786,
      "unk": 2787,
      "unr": 2788,
      "unth": 2789,
      "unse": 2790,
      "unst": 2791,
      "unha": 2792,
      "unpl": 2793,
      "seem": 2794,
      "scape": 2795,
      "scurvy": 2796,
      "serp": 2797,
      "served": 2798,
      "eyed": 2799,
      "##eaks": 2800,
      "fairer": 2801,
      "fairly": 2802,
      "fairies": 2803,
      "plain": 2804,
      "plant": 2805,
      "ago": 2806,
      "heaviness": 2807,
      "abh": 2808,
      "able": 2809,
      "absol": 2810,
      "enj": 2811,
      "enmity": 2812,
      "twain": 2813,
      "twel": 2814,
      "twixt": 2815,
      "conceit": 2816,
      "worth": 2817,
      "worms": 2818,
      "worser": 2819,
      "slip": 2820,
      "looked": 2821,
      "lookest": 2822,
      "quite": 2823,
      "quench": 2824,
      "question": 2825,
      "wond": 2826,
      "wonder": 2827,
      "disg": 2828,
      "distemp": 2829,
      "disobed": 2830,
      "dismal": 2831,
      "drug": 2832,
      "##ado": 2833,
      "##aday": 2834,
      "likewise": 2835,
      "brings": 2836,
      "brains": 2837,
      "brags": 2838,
      "fled": 2839,
      "flattering": 2840,
      "lights": 2841,
      "lightning": 2842,
      "miss": 2843,
      "misfort": 2844,
      "missh": 2845,
      "awake": 2846,
      "climb": 2847,
      "began": 2848,
      "begins": 2849,
      "proc": 2850,
      "prosper": 2851,
      "newly": 2852,
      "strang": 2853,
      "stretch": 2854,
      "streaks": 2855,
      "dearly": 2856,
      "dearest": 2857,
      "parts": 2858,
      "eyesight": 2859,
      "graves": 2860,
      "grands": 2861,
      "wail": 2862,
      "wakes": 2863,
      "waken": 2864,
      "everlast": 2865,
      "evermore": 2866,
      "finds": 2867,
      "beams": 2868,
      "watching": 2869,
      "younger": 2870,
      "desire": 2871,
      "drawing": 2872,
      "##msday": 2873,
      "helen": 2874,
      "helps": 2875,
      "##ission": 2876,
      "prayers": 2877,
      "advers": 2878,
      "adventure": 2879,
      "fools": 2880,
      "leap": 2881,
      "leaves": 2882,
      "souls": 2883,
      "mothers": 2884,
      "joys": 2885,
      "bethink": 2886,
      "grant": 2887,
      "grub": 2888,
      "puts": 2889,
      "##eased": 2890,
      "holding": 2891,
      "beauteous": 2892,
      "couldst": 2893,
      "foll": 2894,
      "sounding": 2895,
      "soundly": 2896,
      "##apen": 2897,
      "##ulls": 2898,
      "office": 2899,
      "breathed": 2900,
      "apace": 2901,
      "rests": 2902,
      "turning": 2903,
      "##ocks": 2904,
      "##ipt": 2905,
      "##quaint": 2906,
      "courage": 2907,
      "courts": 2908,
      "murders": 2909,
      "talked": 2910,
      "wrought": 2911,
      "write": 2912,
      "##eeds": 2913,
      "throne": 2914,
      "intend": 2915,
      "happiness": 2916,
      "happily": 2917,
      "broke": 2918,
      "ended": 2919,
      "endure": 2920,
      "peril": 2921,
      "mista": 2922,
      "sleeps": 2923,
      "quarreling": 2924,
      "burnt": 2925,
      "bestri": 2926,
      "dim": 2927,
      "french": 2928,
      "fresh": 2929,
      "fruit": 2930,
      "seest": 2931,
      "smile": 2932,
      "smoke": 2933,
      "smiles": 2934,
      "smooth": 2935,
      "shamest": 2936,
      "bearing": 2937,
      "forgive": 2938,
      "forgot": 2939,
      "plays": 2940,
      "price": 2941,
      "pride": 2942,
      "private": 2943,
      "wedded": 2944,
      "contin": 2945,
      "contra": 2946,
      "passing": 2947,
      "passado": 2948,
      "roses": 2949,
      "ways": 2950,
      "##emned": 2951,
      "##attered": 2952,
      "##ances": 2953,
      "feeling": 2954,
      "sits": 2955,
      "sitting": 2956,
      "winds": 2957,
      "windows": 2958,
      "deliver": 2959,
      "discourses": 2960,
      "torches": 2961,
      "farthest": 2962,
      "native": 2963,
      "natural": 2964,
      "ope": 2965,
      "opens": 2966,
      "sealed": 2967,
      "sorrows": 2968,
      "street": 2969,
      "devotion": 2970,
      "presence": 2971,
      "counselor": 2972,
      "disposition": 2973,
      "accid": 2974,
      "account": 2975,
      "fights": 2976,
      "guilty": 2977,
      "hangs": 2978,
      "leg": 2979,
      "legs": 2980,
      "leisure": 2981,
      "purged": 2982,
      "resol": 2983,
      "single": 2984,
      "singular": 2985,
      "trim": 2986,
      "underne": 2987,
      "##uments": 2988,
      "knocks": 2989,
      "thankful": 2990,
      "foolish": 2991,
      "drift": 2992,
      "feasting": 2993,
      "groans": 2994,
      "mightst": 2995,
      "pilot": 2996,
      "roaring": 2997,
      "robes": 2998,
      "valiant": 2999,
      "wanting": 3000,
      "##ified": 3001,
      "shrie": 3002,
      "belong": 3003,
      "beloved": 3004,
      "lamentation": 3005,
      "solely": 3006,
      "subj": 3007,
      "remain": 3008,
      "repent": 3009,
      "enemies": 3010,
      "afflic": 3011,
      "despair": 3012,
      "confessor": 3013,
      "returning": 3014,
      "citizen": 3015,
      "burning": 3016,
      "crying": 3017,
      "felt": 3018,
      "feather": 3019,
      "finger": 3020,
      "gallant": 3021,
      "gallops": 3022,
      "overth": 3023,
      "palace": 3024,
      "##ival": 3025,
      "shaft": 3026,
      "wearing": 3027,
      "prettiest": 3028,
      "suspic": 3029,
      "drinks": 3030,
      "attendants": 3031,
      "crutch": 3032,
      "carry": 3033,
      "further": 3034,
      "matched": 3035,
      "penny": 3036,
      "skill": 3037,
      "skulls": 3038,
      "weraday": 3039,
      "wounded": 3040,
      "##mities": 3041,
      "##mediately": 3042,
      "shuts": 3043,
      "often": 3044,
      "behind": 3045,
      "##stantial": 3046,
      "starts": 3047,
      "condemned": 3048,
      "hoarse": 3049,
      "gentlewomen": 3050,
      "temper": 3051,
      "cheerly": 3052,
      "brawl": 3053,
      "brawls": 3054,
      "dropping": 3055,
      "entrance": 3056,
      "mortals": 3057,
      "sentence": 3058,
      "term": 3059,
      "terror": 3060,
      "trees": 3061,
      "venus": 3062,
      "##umstance": 3063,
      "loathed": 3064,
      "dovehouse": 3065,
      "spring": 3066,
      "spread": 3067,
      "scarlet": 3068,
      "womanish": 3069,
      "delights": 3070,
      "bitterly": 3071,
      "pilgrims": 3072,
      "bigger": 3073,
      "determine": 3074,
      "detestable": 3075,
      "medl": 3076,
      "person": 3077,
      "persons": 3078,
      "piece": 3079,
      "riddling": 3080,
      "rope": 3081,
      "stabs": 3082,
      "lodging": 3083,
      "soldier": 3084,
      "##allowed": 3085,
      "angelic": 3086,
      "gossip": 3087,
      "presses": 3088,
      "excels": 3089,
      "excellent": 3090,
      "revived": 3091,
      "wormwood": 3092,
      "misery": 3093,
      "miserable": 3094,
      "henceforth": 3095,
      "henceforward": 3096,
      "descend": 3097,
      "descends": 3098,
      "common": 3099,
      "perforce": 3100,
      "gladly": 3101,
      "palmers": 3102,
      "carrion": 3103,
      "weapon": 3104,
      "weapons": 3105,
      "ornaments": 3106,
      "bleeding": 3107,
      "brave": 3108,
      "borrowed": 3109,
      "danger": 3110,
      "dishon": 3111,
      "effect": 3112,
      "festival": 3113,
      "folger": 3114,
      "immediately": 3115,
      "lusty": 3116,
      "messenger": 3117,
      "pursued": 3118,
      "rising": 3119,
      "rushes": 3120,
      "sepulcher": 3121,
      "vanity": 3122,
      "vitae": 3123,
      "water": 3124,
      "wealth": 3125,
      "wagoner": 3126,
      "##ways": 3127,
      "##sequies": 3128,
      "stepping": 3129,
      "steps": 3130,
      "stinted": 3131,
      "lammas": 3132,
      "livery": 3133,
      "ashes": 3134,
      "mangled": 3135,
      "cankered": 3136,
      "trouble": 3137,
      "tailor": 3138,
      "possessed": 3139,
      "unluck": 3140,
      "slander": 3141,
      "greeting": 3142,
      "misadventure": 3143,
      "clubs": 3144,
      "prologue": 3145,
      "proport": 3146,
      "profan": 3147,
      "households": 3148,
      "griev": 3149,
      "compliment": 3150,
      "torchbearers": 3151,
      "minstrels": 3152,
      "disturb": 3153,
      "tremble": 3154,
      "vengeance": 3155,
      "unworthy": 3156,
      "circumstance": 3157,
      "acquaint": 3158,
      "antic": 3159,
      "aqua": 3160,
      "baggage": 3161,
      "corns": 3162,
      "doomsday": 3163,
      "daughters": 3164,
      "dancing": 3165,
      "duelist": 3166,
      "egg": 3167,
      "escal": 3168,
      "eleven": 3169,
      "general": 3170,
      "harlot": 3171,
      "holid": 3172,
      "jaunt": 3173,
      "lantern": 3174,
      "mouth": 3175,
      "mutiny": 3176,
      "mattock": 3177,
      "number": 3178,
      "nimble": 3179,
      "obsequies": 3180,
      "pestil": 3181,
      "punished": 3182,
      "pitiful": 3183,
      "school": 3184,
      "siege": 3185,
      "tedious": 3186,
      "undone": 3187,
      "vestal": 3188,
      "volume": 3189,
      "##leness": 3190,
      "##covered": 3191,
      "##fully": 3192,
      "thirty": 3193,
      "threatened": 3194,
      "shadows": 3195,
      "inquire": 3196,
      "instruments": 3197,
      "limbs": 3198,
      "hereafter": 3199,
      "demesnes": 3200,
      "choler": 3201,
      "paradise": 3202,
      "examine": 3203,
      "neighbor": 3204,
      "saucy": 3205,
      "amazed": 3206,
      "blubb": 3207,
      "bottom": 3208,
      "trencher": 3209,
      "unhappy": 3210,
      "twelve": 3211,
      "disobedient": 3212,
      "drugs": 3213,
      "misfortune": 3214,
      "misshapen": 3215,
      "prosperous": 3216,
      "grandsire": 3217,
      "everlasting": 3218,
      "underneath": 3219,
      "suspicion": 3220,
      "escalus": 3221,
      "\";": 3222,
      ".)": 3223,
      "20": 3224,
      "31": 3225,
      ":/": 3226,
      "[(": 3227,
      "ax": 3228,
      "aur": 3229,
      "ari": 3230,
      "ack": 3231,
      "aug": 3232,
      "amend": 3233,
      "alder": 3234,
      "aimed": 3235,
      "ber": 3236,
      "bon": 3237,
      "boo": 3238,
      "ball": 3239,
      "bent": 3240,
      "bide": 3241,
      "bau": 3242,
      "bout": 3243,
      "bale": 3244,
      "bower": 3245,
      "bap": 3246,
      "bach": 3247,
      "buck": 3248,
      "bump": 3249,
      "bade": 3250,
      "batt": 3251,
      "budge": 3252,
      "bought": 3253,
      "bount": 3254,
      "bating": 3255,
      "bills": 3256,
      "cy": 3257,
      "cow": 3258,
      "cre": 3259,
      "cord": 3260,
      "cun": 3261,
      "contag": 3262,
      "cust": 3263,
      "cram": 3264,
      "crows": 3265,
      "certain": 3266,
      "center": 3267,
      "dea": 3268,
      "dow": 3269,
      "dain": 3270,
      "dine": 3271,
      "drow": 3272,
      "dust": 3273,
      "died": 3274,
      "drows": 3275,
      "duc": 3276,
      "dined": 3277,
      "dates": 3278,
      "danced": 3279,
      "dedic": 3280,
      "ell": 3281,
      "eth": 3282,
      "eight": 3283,
      "eag": 3284,
      "emb": 3285,
      "eats": 3286,
      "eden": 3287,
      "etern": 3288,
      "ebb": 3289,
      "echo": 3290,
      "elder": 3291,
      "fd": 3292,
      "fen": 3293,
      "fet": 3294,
      "fay": 3295,
      "fath": 3296,
      "fid": 3297,
      "fil": 3298,
      "frow": 3299,
      "fate": 3300,
      "fun": 3301,
      "feet": 3302,
      "furn": 3303,
      "fears": 3304,
      "fel": 3305,
      "fig": 3306,
      "fash": 3307,
      "fume": 3308,
      "fantas": 3309,
      "gar": 3310,
      "gle": 3311,
      "gid": 3312,
      "gain": 3313,
      "gore": 3314,
      "gate": 3315,
      "gun": 3316,
      "game": 3317,
      "gad": 3318,
      "gory": 3319,
      "gown": 3320,
      "gap": 3321,
      "gav": 3322,
      "gnat": 3323,
      "gills": 3324,
      "hy": 3325,
      "hat": 3326,
      "hor": 3327,
      "hay": 3328,
      "hoo": 3329,
      "hook": 3330,
      "htt": 3331,
      "hars": 3332,
      "hated": 3333,
      "ign": 3334,
      "idle": 3335,
      "ja": 3336,
      "ju": 3337,
      "jour": 3338,
      "jame": 3339,
      "jew": 3340,
      "ke": 3341,
      "kin": 3342,
      "kep": 3343,
      "kings": 3344,
      "kitch": 3345,
      "lin": 3346,
      "lar": 3347,
      "lis": 3348,
      "len": 3349,
      "lur": 3350,
      "lath": 3351,
      "lone": 3352,
      "lure": 3353,
      "loud": 3354,
      "loose": 3355,
      "length": 3356,
      "mat": 3357,
      "mor": 3358,
      "mea": 3359,
      "mow": 3360,
      "mid": 3361,
      "mood": 3362,
      "mil": 3363,
      "mich": 3364,
      "mour": 3365,
      "mong": 3366,
      "meas": 3367,
      "mire": 3368,
      "miles": 3369,
      "mickle": 3370,
      "mount": 3371,
      "mates": 3372,
      "mixt": 3373,
      "mixed": 3374,
      "na": 3375,
      "ni": 3376,
      "ner": 3377,
      "nar": 3378,
      "nut": 3379,
      "nell": 3380,
      "nour": 3381,
      "nun": 3382,
      "nick": 3383,
      "nap": 3384,
      "nup": 3385,
      "numb": 3386,
      "nets": 3387,
      "niles": 3388,
      "os": 3389,
      "ow": 3390,
      "oper": 3391,
      "overs": 3392,
      "omit": 3393,
      "obs": 3394,
      "owe": 3395,
      "pa": 3396,
      "pou": 3397,
      "por": 3398,
      "pome": 3399,
      "pent": 3400,
      "pee": 3401,
      "pear": 3402,
      "pate": 3403,
      "pant": 3404,
      "pout": 3405,
      "pig": 3406,
      "pick": 3407,
      "pap": 3408,
      "pip": 3409,
      "pho": 3410,
      "purch": 3411,
      "pup": 3412,
      "push": 3413,
      "pub": 3414,
      "pined": 3415,
      "pitch": 3416,
      "painted": 3417,
      "punt": 3418,
      "ry": 3419,
      "ri": 3420,
      "rin": 3421,
      "ren": 3422,
      "ray": 3423,
      "rit": 3424,
      "rag": 3425,
      "rood": 3426,
      "rear": 3427,
      "rous": 3428,
      "round": 3429,
      "rind": 3430,
      "rise": 3431,
      "rust": 3432,
      "rig": 3433,
      "rains": 3434,
      "ranc": 3435,
      "ratt": 3436,
      "rash": 3437,
      "root": 3438,
      "rocks": 3439,
      "sor": 3440,
      "sen": 3441,
      "sed": 3442,
      "sore": 3443,
      "sies": 3444,
      "sale": 3445,
      "seas": 3446,
      "squ": 3447,
      "sens": 3448,
      "sallow": 3449,
      "sides": 3450,
      "seeds": 3451,
      "tall": 3452,
      "test": 3453,
      "tas": 3454,
      "til": 3455,
      "tun": 3456,
      "teet": 3457,
      "tide": 3458,
      "ties": 3459,
      "torn": 3460,
      "tith": 3461,
      "tig": 3462,
      "tick": 3463,
      "tetch": 3464,
      "tune": 3465,
      "tart": 3466,
      "tickle": 3467,
      "tallow": 3468,
      "tainted": 3469,
      "team": 3470,
      "tipt": 3471,
      "tattered": 3472,
      "ump": 3473,
      "vo": 3474,
      "var": 3475,
      "ves": 3476,
      "vast": 3477,
      "vows": 3478,
      "vict": 3479,
      "won": 3480,
      "wing": 3481,
      "wood": 3482,
      "wol": 3483,
      "wine": 3484,
      "wand": 3485,
      "wad": 3486,
      "ward": 3487,
      "wary": 3488,
      "yon": 3489,
      "yest": 3490,
      "yell": 3491,
      "yard": 3492,
      "yoke": 3493,
      "yield": 3494,
      "##tin": 3495,
      "##ten": 3496,
      "##ted": 3497,
      "##tly": 3498,
      "##tue": 3499,
      "##tish": 3500,
      "##turn": 3501,
      "##tled": 3502,
      "##take": 3503,
      "##tained": 3504,
      "##tiz": 3505,
      "##eb": 3506,
      "##ex": 3507,
      "##eor": 3508,
      "##eld": 3509,
      "##eck": 3510,
      "##emp": 3511,
      "##even": 3512,
      "##aet": 3513,
      "##aid": 3514,
      "##amp": 3515,
      "##app": 3516,
      "##aus": 3517,
      "##aves": 3518,
      "##aps": 3519,
      "##ael": 3520,
      "##aised": 3521,
      "##abed": 3522,
      "##acle": 3523,
      "##aimed": 3524,
      "##aways": 3525,
      "##ler": 3526,
      "##lan": 3527,
      "##lind": 3528,
      "##lves": 3529,
      "##lance": 3530,
      "##lower": 3531,
      "##lace": 3532,
      "##lied": 3533,
      "##loy": 3534,
      "##liest": 3535,
      "##locks": 3536,
      "##ys": 3537,
      "##yers": 3538,
      "##ysic": 3539,
      "##bar": 3540,
      "##but": 3541,
      "##bit": 3542,
      "##bly": 3543,
      "##bel": 3544,
      "##bled": 3545,
      "##bird": 3546,
      "##bles": 3547,
      "##bbed": 3548,
      "##boy": 3549,
      "##brary": 3550,
      "##blet": 3551,
      "##board": 3552,
      "##blind": 3553,
      "##oe": 3554,
      "##of": 3555,
      "##ox": 3556,
      "##oise": 3557,
      "##oder": 3558,
      "##oft": 3559,
      "##oqu": 3560,
      "##oem": 3561,
      "##oined": 3562,
      "##oak": 3563,
      "##im": 3564,
      "##ix": 3565,
      "##iar": 3566,
      "##ien": 3567,
      "##ian": 3568,
      "##iate": 3569,
      "##ives": 3570,
      "##iam": 3571,
      "##ips": 3572,
      "##ipped": 3573,
      "##ns": 3574,
      "##nth": 3575,
      "##nut": 3576,
      "##nous": 3577,
      "##nment": 3578,
      "##nown": 3579,
      "##nation": 3580,
      "##nants": 3581,
      "##nicious": 3582,
      "##dig": 3583,
      "##dled": 3584,
      "##dained": 3585,
      "##dlest": 3586,
      "##dict": 3587,
      "##min": 3588,
      "##mon": 3589,
      "##mir": 3590,
      "##mil": 3591,
      "##mand": 3592,
      "##mson": 3593,
      "##mory": 3594,
      "##made": 3595,
      "##mak": 3596,
      "##mmet": 3597,
      "##mission": 3598,
      "##maid": 3599,
      "##ca": 3600,
      "##car": 3601,
      "##cor": 3602,
      "##can": 3603,
      "##cing": 3604,
      "##cea": 3605,
      "##cre": 3606,
      "##cent": 3607,
      "##cil": 3608,
      "##cad": 3609,
      "##catch": 3610,
      "##cam": 3611,
      "##cile": 3612,
      "##com": 3613,
      "##cease": 3614,
      "##cured": 3615,
      "##cund": 3616,
      "##cox": 3617,
      "##ky": 3618,
      "##kr": 3619,
      "##ker": 3620,
      "##kins": 3621,
      "##ua": 3622,
      "##uce": 3623,
      "##udy": 3624,
      "##uage": 3625,
      "##uance": 3626,
      "##ums": 3627,
      "##under": 3628,
      "##uised": 3629,
      "##gat": 3630,
      "##gle": 3631,
      "##gro": 3632,
      "##gall": 3633,
      "##gain": 3634,
      "##gent": 3635,
      "##gue": 3636,
      "##gion": 3637,
      "##gress": 3638,
      "##gned": 3639,
      "##geth": 3640,
      "##gression": 3641,
      "##gives": 3642,
      "##hal": 3643,
      "##hallowed": 3644,
      "##pe": 3645,
      "##par": 3646,
      "##por": 3647,
      "##ple": 3648,
      "##pter": 3649,
      "##pec": 3650,
      "##paint": 3651,
      "##pier": 3652,
      "##pass": 3653,
      "##post": 3654,
      "##pects": 3655,
      "##pgall": 3656,
      "##vere": 3657,
      "##vio": 3658,
      "##vage": 3659,
      "##vity": 3660,
      "##vised": 3661,
      "##vior": 3662,
      "##vants": 3663,
      "##voy": 3664,
      "##set": 3665,
      "##sign": 3666,
      "##ran": 3667,
      "##read": 3668,
      "##rine": 3669,
      "##rup": 3670,
      "##reth": 3671,
      "##rist": 3672,
      "##rating": 3673,
      "##rarch": 3674,
      "##rusion": 3675,
      "##ws": 3676,
      "##wer": 3677,
      "##wed": 3678,
      "##wink": 3679,
      "##with": 3680,
      "##wart": 3681,
      "##witch": 3682,
      "##worth": 3683,
      "##jac": 3684,
      "##fet": 3685,
      "##fill": 3686,
      "##fts": 3687,
      "##fling": 3688,
      "##fold": 3689,
      "##fixed": 3690,
      "##foot": 3691,
      "##fits": 3692,
      "##flocks": 3693,
      "##que": 3694,
      "##ze": 3695,
      "##zz": 3696,
      "##zes": 3697,
      "##xes": 3698,
      "##xter": 3699,
      "##15": 3700,
      "thro": 3701,
      "throw": 3702,
      "thie": 3703,
      "thorn": 3704,
      "throws": 3705,
      "thrown": 3706,
      "thigh": 3707,
      "thwart": 3708,
      "##ery": 3709,
      "##eror": 3710,
      "##eret": 3711,
      "##erce": 3712,
      "##erous": 3713,
      "##erving": 3714,
      "##erun": 3715,
      "##erage": 3716,
      "##ernight": 3717,
      "##oudy": 3718,
      "theme": 3719,
      "##ndor": 3720,
      "##ndst": 3721,
      "##ndra": 3722,
      "##ndage": 3723,
      "##iner": 3724,
      "##ines": 3725,
      "##inest": 3726,
      "##inant": 3727,
      "##inite": 3728,
      "##ination": 3729,
      "##inners": 3730,
      "##inces": 3731,
      "##incox": 3732,
      "##ato": 3733,
      "##ator": 3734,
      "##atri": 3735,
      "##atra": 3736,
      "##atue": 3737,
      "##ative": 3738,
      "##atry": 3739,
      "##atage": 3740,
      "##atom": 3741,
      "##atient": 3742,
      "##arage": 3743,
      "##aries": 3744,
      "##arated": 3745,
      "##ora": 3746,
      "##ores": 3747,
      "##orance": 3748,
      "##orious": 3749,
      "##orred": 3750,
      "##orced": 3751,
      "##orative": 3752,
      "##member": 3753,
      "##meats": 3754,
      "##isk": 3755,
      "##isite": 3756,
      "##isper": 3757,
      "##ening": 3758,
      "##etle": 3759,
      "##etic": 3760,
      "##etite": 3761,
      "##etition": 3762,
      "##etua": 3763,
      "toy": 3764,
      "toes": 3765,
      "tool": 3766,
      "toss": 3767,
      "togeth": 3768,
      "topgall": 3769,
      "tower": 3770,
      "##though": 3771,
      "##thecary": 3772,
      "##thony": 3773,
      "##thmet": 3774,
      "##thread": 3775,
      "##espass": 3776,
      "##aned": 3777,
      "##anate": 3778,
      "##anish": 3779,
      "##anger": 3780,
      "##anks": 3781,
      "##oned": 3782,
      "##oning": 3783,
      "##edom": 3784,
      "##omes": 3785,
      "wives": 3786,
      "wicked": 3787,
      "wield": 3788,
      "##inger": 3789,
      "##ingly": 3790,
      "noon": 3791,
      "noses": 3792,
      "nobly": 3793,
      "##vey": 3794,
      "##veful": 3795,
      "##veling": 3796,
      "##vels": 3797,
      "whore": 3798,
      "whee": 3799,
      "whiles": 3800,
      "whining": 3801,
      "whipped": 3802,
      "wheret": 3803,
      "whores": 3804,
      "whisper": 3805,
      "##ura": 3806,
      "##url": 3807,
      "##ury": 3808,
      "##urer": 3809,
      "##ures": 3810,
      "##uring": 3811,
      "shin": 3812,
      "shore": 3813,
      "shun": 3814,
      "shap": 3815,
      "shift": 3816,
      "shining": 3817,
      "shield": 3818,
      "shirt": 3819,
      "shoem": 3820,
      "shanks": 3821,
      "##uteth": 3822,
      "##uttish": 3823,
      "##ulty": 3824,
      "##eament": 3825,
      "##eason": 3826,
      "##eals": 3827,
      "beard": 3828,
      "bells": 3829,
      "bepaint": 3830,
      "bewitch": 3831,
      "befits": 3832,
      "beetle": 3833,
      "ink": 3834,
      "inch": 3835,
      "infect": 3836,
      "instant": 3837,
      "inund": 3838,
      "inher": 3839,
      "inex": 3840,
      "inaus": 3841,
      "incor": 3842,
      "##stal": 3843,
      "##stine": 3844,
      "##sters": 3845,
      "##stable": 3846,
      "##cend": 3847,
      "##ceive": 3848,
      "##celed": 3849,
      "##ceeding": 3850,
      "##chang": 3851,
      "##chets": 3852,
      "##chief": 3853,
      "##ghing": 3854,
      "meats": 3855,
      "melan": 3856,
      "memory": 3857,
      "mewed": 3858,
      "##irm": 3859,
      "##ires": 3860,
      "##irre": 3861,
      "##irest": 3862,
      "##ironed": 3863,
      "wither": 3864,
      "forms": 3865,
      "forerun": 3866,
      "##erend": 3867,
      "##ril": 3868,
      "##ried": 3869,
      "##rich": 3870,
      "##rives": 3871,
      "##rible": 3872,
      "##rived": 3873,
      "hag": 3874,
      "hams": 3875,
      "haught": 3876,
      "haunt": 3877,
      "havior": 3878,
      "heat": 3879,
      "heels": 3880,
      "notes": 3881,
      "noted": 3882,
      "noting": 3883,
      "notice": 3884,
      "stoo": 3885,
      "stro": 3886,
      "stead": 3887,
      "stark": 3888,
      "stale": 3889,
      "stock": 3890,
      "stains": 3891,
      "start": 3892,
      "stif": 3893,
      "stair": 3894,
      "steeds": 3895,
      "study": 3896,
      "statue": 3897,
      "steals": 3898,
      "##ooping": 3899,
      "##ooveful": 3900,
      "##aly": 3901,
      "##als": 3902,
      "##alf": 3903,
      "##ales": 3904,
      "##alit": 3905,
      "lap": 3906,
      "lame": 3907,
      "lace": 3908,
      "lamp": 3909,
      "lash": 3910,
      "labor": 3911,
      "lacks": 3912,
      "label": 3913,
      "laura": 3914,
      "lip": 3915,
      "liest": 3916,
      "limp": 3917,
      "lief": 3918,
      "lived": 3919,
      "liars": 3920,
      "liking": 3921,
      "library": 3922,
      "ligned": 3923,
      "lifts": 3924,
      "##reet": 3925,
      "##rees": 3926,
      "its": 3927,
      "itch": 3928,
      "italy": 3929,
      "##lex": 3930,
      "##leful": 3931,
      "##lement": 3932,
      "##itor": 3933,
      "##iting": 3934,
      "thisbe": 3935,
      "cam": 3936,
      "cage": 3937,
      "cakes": 3938,
      "caiti": 3939,
      "loins": 3940,
      "lolling": 3941,
      "##athe": 3942,
      "##athy": 3943,
      "asking": 3944,
      "aspir": 3945,
      "assemb": 3946,
      "asunder": 3947,
      "ascend": 3948,
      "##ntains": 3949,
      "soled": 3950,
      "soles": 3951,
      "sober": 3952,
      "sojour": 3953,
      "solace": 3954,
      "sovere": 3955,
      "##ided": 3956,
      "##idity": 3957,
      "##ideth": 3958,
      "##iety": 3959,
      "butcher": 3960,
      "##iot": 3961,
      "##iop": 3962,
      "hero": 3963,
      "herring": 3964,
      "heretic": 3965,
      "web": 3966,
      "weigh": 3967,
      "weaned": 3968,
      "doves": 3969,
      "doct": 3970,
      "doff": 3971,
      "dozen": 3972,
      "doleful": 3973,
      "whate": 3974,
      "maw": 3975,
      "maint": 3976,
      "mammet": 3977,
      "mandra": 3978,
      "masters": 3979,
      "deed": 3980,
      "deck": 3981,
      "defor": 3982,
      "deeds": 3983,
      "deceit": 3984,
      "demand": 3985,
      "dexter": 3986,
      "##===": 3987,
      "##keep": 3988,
      "ansel": 3989,
      "anatom": 3990,
      "anthony": 3991,
      "##cker": 3992,
      "##cket": 3993,
      "wills": 3994,
      "willed": 3995,
      "willful": 3996,
      "william": 3997,
      "willingly": 3998,
      "hill": 3999,
      "hinds": 4000,
      "hills": 4001,
      "##entous": 4002,
      "##entine": 4003,
      "##entage": 4004,
      "##entious": 4005,
      "hissed": 4006,
      "captain": 4007,
      "sheet": 4008,
      "shelves": 4009,
      "##ests": 4010,
      "##estors": 4011,
      "##ages": 4012,
      "##agined": 4013,
      "##agued": 4014,
      "comest": 4015,
      "##eech": 4016,
      "chat": 4017,
      "chid": 4018,
      "chain": 4019,
      "chap": 4020,
      "chinks": 4021,
      "chief": 4022,
      "chances": 4023,
      "christ": 4024,
      "churl": 4025,
      "##eary": 4026,
      "##eard": 4027,
      "##asps": 4028,
      "manes": 4029,
      "manly": 4030,
      "mantle": 4031,
      "mumb": 4032,
      "pry": 4033,
      "prud": 4034,
      "pressed": 4035,
      "prouds": 4036,
      "prating": 4037,
      "predic": 4038,
      "pract": 4039,
      "praised": 4040,
      "princox": 4041,
      "predom": 4042,
      "ladyship": 4043,
      "ladybird": 4044,
      "fade": 4045,
      "faster": 4046,
      "famine": 4047,
      "famil": 4048,
      "param": 4049,
      "parson": 4050,
      "parentage": 4051,
      "##vert": 4052,
      "##vern": 4053,
      "##verer": 4054,
      "##verence": 4055,
      "##veril": 4056,
      "##verbed": 4057,
      "##rand": 4058,
      "##rase": 4059,
      "##raid": 4060,
      "##raise": 4061,
      "##raught": 4062,
      "##rape": 4063,
      "sups": 4064,
      "sunder": 4065,
      "suited": 4066,
      "suffer": 4067,
      "sucking": 4068,
      "alla": 4069,
      "ally": 4070,
      "allow": 4071,
      "allig": 4072,
      "alliance": 4073,
      "uprous": 4074,
      "upturn": 4075,
      "upfill": 4076,
      "##olog": 4077,
      "##olored": 4078,
      "##olatry": 4079,
      "exec": 4080,
      "exqu": 4081,
      "exper": 4082,
      "exiled": 4083,
      "exhal": 4084,
      "##eading": 4085,
      "##eadful": 4086,
      "##alty": 4087,
      "##ellious": 4088,
      "necess": 4089,
      "neph": 4090,
      "negle": 4091,
      "sped": 4092,
      "spit": 4093,
      "spell": 4094,
      "spare": 4095,
      "spec": 4096,
      "spark": 4097,
      "spak": 4098,
      "spited": 4099,
      "sparing": 4100,
      "spices": 4101,
      "spher": 4102,
      "spits": 4103,
      "spider": 4104,
      "spilled": 4105,
      "spinners": 4106,
      "spanish": 4107,
      "speech": 4108,
      "##ording": 4109,
      "sack": 4110,
      "sauce": 4111,
      "savage": 4112,
      "safet": 4113,
      "thereof": 4114,
      "therewith": 4115,
      "tying": 4116,
      "tyran": 4117,
      "goodly": 4118,
      "goodman": 4119,
      "##ters": 4120,
      "##termed": 4121,
      "##mpathy": 4122,
      "tybalts": 4123,
      "bench": 4124,
      "benef": 4125,
      "benedic": 4126,
      "orb": 4127,
      "orison": 4128,
      "ordained": 4129,
      "lawyers": 4130,
      "cot": 4131,
      "cop": 4132,
      "cost": 4133,
      "coil": 4134,
      "cote": 4135,
      "coach": 4136,
      "coated": 4137,
      "coying": 4138,
      "coph": 4139,
      "coals": 4140,
      "swan": 4141,
      "sway": 4142,
      "swears": 4143,
      "swif": 4144,
      "swoon": 4145,
      "swung": 4146,
      "swallowed": 4147,
      "##illing": 4148,
      "nights": 4149,
      "enters": 4150,
      "entertained": 4151,
      "hole": 4152,
      "hoars": 4153,
      "knit": 4154,
      "knot": 4155,
      "knaves": 4156,
      "##manned": 4157,
      "arse": 4158,
      "arrow": 4159,
      "arbit": 4160,
      "arrives": 4161,
      "atom": 4162,
      "moving": 4163,
      "moans": 4164,
      "moveth": 4165,
      "mocker": 4166,
      "##few": 4167,
      "##femin": 4168,
      "deathbed": 4169,
      "amerce": 4170,
      "blame": 4171,
      "blaz": 4172,
      "blaze": 4173,
      "lets": 4174,
      "letting": 4175,
      "canop": 4176,
      "canceled": 4177,
      "marty": 4178,
      "marred": 4179,
      "marked": 4180,
      "maria": 4181,
      "marvel": 4182,
      "martial": 4183,
      "martin": 4184,
      "margent": 4185,
      "##ouring": 4186,
      "##ourish": 4187,
      "##ourge": 4188,
      "heareth": 4189,
      "##mbly": 4190,
      "##mblance": 4191,
      "boist": 4192,
      "bodes": 4193,
      "bodies": 4194,
      "boxes": 4195,
      "bondage": 4196,
      "saying": 4197,
      "sayest": 4198,
      "train": 4199,
      "treasure": 4200,
      "truck": 4201,
      "trump": 4202,
      "treach": 4203,
      "trunk": 4204,
      "trespass": 4205,
      "treason": 4206,
      "trooping": 4207,
      "##sels": 4208,
      "##seless": 4209,
      "##selves": 4210,
      "##=======": 4211,
      "wherein": 4212,
      "whereon": 4213,
      "ourselves": 4214,
      "reven": 4215,
      "requ": 4216,
      "revers": 4217,
      "rebe": 4218,
      "recon": 4219,
      "recl": 4220,
      "revel": 4221,
      "reenter": 4222,
      "reverse": 4223,
      "region": 4224,
      "revels": 4225,
      "reverence": 4226,
      "table": 4227,
      "tackled": 4228,
      "tables": 4229,
      "taker": 4230,
      "tavern": 4231,
      "##icine": 4232,
      "##icial": 4233,
      "madly": 4234,
      "madmen": 4235,
      "madness": 4236,
      "howling": 4237,
      "aloft": 4238,
      "although": 4239,
      "##imes": 4240,
      "outcry": 4241,
      "##andise": 4242,
      "pop": 4243,
      "pox": 4244,
      "pots": 4245,
      "poster": 4246,
      "poised": 4247,
      "points": 4248,
      "pothecary": 4249,
      "##pple": 4250,
      "##ppers": 4251,
      "##ppered": 4252,
      "##areled": 4253,
      "##usions": 4254,
      "##uscad": 4255,
      "##ooked": 4256,
      "unad": 4257,
      "unrea": 4258,
      "unatt": 4259,
      "univers": 4260,
      "unnat": 4261,
      "unchar": 4262,
      "uncovered": 4263,
      "uneven": 4264,
      "unmade": 4265,
      "uncom": 4266,
      "unhallowed": 4267,
      "unmanned": 4268,
      "##unes": 4269,
      "##uned": 4270,
      "##unity": 4271,
      "##orts": 4272,
      "##ortunity": 4273,
      "artif": 4274,
      "seeks": 4275,
      "seeking": 4276,
      "score": 4277,
      "scare": 4278,
      "scant": 4279,
      "scop": 4280,
      "scars": 4281,
      "scattering": 4282,
      "scattered": 4283,
      "scales": 4284,
      "scathe": 4285,
      "scrape": 4286,
      "scourge": 4287,
      "serves": 4288,
      "serious": 4289,
      "servants": 4290,
      "##amed": 4291,
      "##ament": 4292,
      "##venient": 4293,
      "eyel": 4294,
      "theirs": 4295,
      "fairest": 4296,
      "plate": 4297,
      "pleas": 4298,
      "plats": 4299,
      "plants": 4300,
      "plac": 4301,
      "pleading": 4302,
      "agate": 4303,
      "agile": 4304,
      "agreed": 4305,
      "agrees": 4306,
      "heaped": 4307,
      "##fulness": 4308,
      "abed": 4309,
      "abate": 4310,
      "abound": 4311,
      "abuse": 4312,
      "abrah": 4313,
      "abroach": 4314,
      "abbey": 4315,
      "aboard": 4316,
      "abuses": 4317,
      "abused": 4318,
      "enam": 4319,
      "enfor": 4320,
      "engro": 4321,
      "enpier": 4322,
      "ensign": 4323,
      "enfold": 4324,
      "enrich": 4325,
      "dido": 4326,
      "gentler": 4327,
      "twere": 4328,
      "twould": 4329,
      "twill": 4330,
      "twink": 4331,
      "twist": 4332,
      "conqu": 4333,
      "conjur": 4334,
      "constr": 4335,
      "concl": 4336,
      "consequ": 4337,
      "concea": 4338,
      "convoy": 4339,
      "convey": 4340,
      "constable": 4341,
      "conceive": 4342,
      "convert": 4343,
      "convenient": 4344,
      "worst": 4345,
      "works": 4346,
      "hasty": 4347,
      "hasten": 4348,
      "hastes": 4349,
      "slack": 4350,
      "slop": 4351,
      "slug": 4352,
      "sluttish": 4353,
      "sweeter": 4354,
      "sweeten": 4355,
      "sweeting": 4356,
      "sweetly": 4357,
      "sweethear": 4358,
      "sweetmeats": 4359,
      "couch": 4360,
      "couple": 4361,
      "coughing": 4362,
      "looking": 4363,
      "quit": 4364,
      "quiver": 4365,
      "quivers": 4366,
      "quinces": 4367,
      "qualit": 4368,
      "wot": 4369,
      "##ecost": 4370,
      "##ecca": 4371,
      "##geon": 4372,
      "##geous": 4373,
      "disper": 4374,
      "dislike": 4375,
      "dissemb": 4376,
      "dischar": 4377,
      "dismember": 4378,
      "jove": 4379,
      "joined": 4380,
      "jocund": 4381,
      "joiner": 4382,
      "timeless": 4383,
      "drag": 4384,
      "dressed": 4385,
      "drudge": 4386,
      "dragon": 4387,
      "drums": 4388,
      "dreadful": 4389,
      "##aubed": 4390,
      "handing": 4391,
      "likely": 4392,
      "musty": 4393,
      "bred": 4394,
      "bread": 4395,
      "brine": 4396,
      "breach": 4397,
      "brought": 4398,
      "bragg": 4399,
      "brisk": 4400,
      "flag": 4401,
      "flood": 4402,
      "flint": 4403,
      "flask": 4404,
      "flirt": 4405,
      "flourish": 4406,
      "hearted": 4407,
      "heartless": 4408,
      "fired": 4409,
      "lightly": 4410,
      "lightens": 4411,
      "lightness": 4412,
      "misty": 4413,
      "misbe": 4414,
      "mistemp": 4415,
      "mischance": 4416,
      "misapp": 4417,
      "miscar": 4418,
      "misgives": 4419,
      "mischief": 4420,
      "mistermed": 4421,
      "##amers": 4422,
      "##amity": 4423,
      "awaken": 4424,
      "aweary": 4425,
      "##ote": 4426,
      "##psy": 4427,
      "calling": 4428,
      "petrarch": 4429,
      "##menting": 4430,
      "##urnished": 4431,
      "##sonable": 4432,
      "clout": 4433,
      "clos": 4434,
      "cloth": 4435,
      "claps": 4436,
      "cloak": 4437,
      "cloudy": 4438,
      "clasps": 4439,
      "##ltice": 4440,
      "staying": 4441,
      "older": 4442,
      "begun": 4443,
      "begot": 4444,
      "heavenly": 4445,
      "banqu": 4446,
      "bankr": 4447,
      "backs": 4448,
      "proves": 4449,
      "proper": 4450,
      "prostr": 4451,
      "prodig": 4452,
      "progress": 4453,
      "proceeding": 4454,
      "proverbed": 4455,
      "usest": 4456,
      "usurer": 4457,
      "=============": 4458,
      "============": 4459,
      "menace": 4460,
      "##cting": 4461,
      "strain": 4462,
      "strains": 4463,
      "strained": 4464,
      "stream": 4465,
      "straining": 4466,
      "stratage": 4467,
      "stranger": 4468,
      "dearer": 4469,
      "parted": 4470,
      "parting": 4471,
      "partly": 4472,
      "parties": 4473,
      "##osite": 4474,
      "##ossed": 4475,
      "bedeck": 4476,
      "bedaubed": 4477,
      "gracious": 4478,
      "gravity": 4479,
      "graze": 4480,
      "named": 4481,
      "six": 4482,
      "sigh": 4483,
      "simon": 4484,
      "wait": 4485,
      "waverer": 4486,
      "erper": 4487,
      "ercovered": 4488,
      "errand": 4489,
      "finding": 4490,
      "##tsy": 4491,
      "housewife": 4492,
      "watched": 4493,
      "watchman": 4494,
      "youngest": 4495,
      "counts": 4496,
      "country": 4497,
      "afire": 4498,
      "affect": 4499,
      "afeard": 4500,
      "afraid": 4501,
      "descry": 4502,
      "descent": 4503,
      "desirest": 4504,
      "fearest": 4505,
      "fearfully": 4506,
      "thinking": 4507,
      "thinkest": 4508,
      "##owned": 4509,
      "drawer": 4510,
      "##elor": 4511,
      "##elming": 4512,
      "##igion": 4513,
      "##iguit": 4514,
      "##gerhead": 4515,
      "##alked": 4516,
      "earthen": 4517,
      "earthqu": 4518,
      "bids": 4519,
      "##ressed": 4520,
      "##ressing": 4521,
      "##ressly": 4522,
      "liege": 4523,
      "faithfully": 4524,
      "cannon": 4525,
      "ado": 4526,
      "add": 4527,
      "adding": 4528,
      "admit": 4529,
      "addle": 4530,
      "added": 4531,
      "admir": 4532,
      "adjac": 4533,
      "griping": 4534,
      "grindst": 4535,
      "leaf": 4536,
      "least": 4537,
      "leaving": 4538,
      "leapt": 4539,
      "south": 4540,
      "##ledge": 4541,
      "##ople": 4542,
      "##opatra": 4543,
      "anywh": 4544,
      "childish": 4545,
      "childhood": 4546,
      "friendly": 4547,
      "friendship": 4548,
      ".\"]": 4549,
      "betake": 4550,
      "betroth": 4551,
      "betossed": 4552,
      "fallen": 4553,
      "grass": 4554,
      "grudge": 4555,
      "headstr": 4556,
      "north": 4557,
      "putting": 4558,
      "##astide": 4559,
      "##ssing": 4560,
      "##easing": 4561,
      "lively": 4562,
      "needly": 4563,
      "needful": 4564,
      "holder": 4565,
      "beautiful": 4566,
      "beautify": 4567,
      "downright": 4568,
      "foes": 4569,
      "runn": 4570,
      "rung": 4571,
      "runs": 4572,
      "runagate": 4573,
      "runaways": 4574,
      "sounds": 4575,
      "soundpost": 4576,
      "##angled": 4577,
      "offers": 4578,
      "offered": 4579,
      "offense": 4580,
      "helped": 4581,
      "breathe": 4582,
      "breaths": 4583,
      "breathes": 4584,
      "ape": 4585,
      "april": 4586,
      "apolog": 4587,
      "killing": 4588,
      "kissing": 4589,
      "restorative": 4590,
      "turned": 4591,
      "warning": 4592,
      "warns": 4593,
      "villainous": 4594,
      "untaught": 4595,
      "untalked": 4596,
      "untangled": 4597,
      "##ccato": 4598,
      "##hoppers": 4599,
      "keepers": 4600,
      "beside": 4601,
      "bescre": 4602,
      "ringing": 4603,
      "wring": 4604,
      "wreak": 4605,
      "wrench": 4606,
      "writing": 4607,
      "##ffic": 4608,
      "thread": 4609,
      "intrusion": 4610,
      "sooner": 4611,
      "soonest": 4612,
      "sunset": 4613,
      "compass": 4614,
      "compounds": 4615,
      "quarter": 4616,
      "broken": 4617,
      "eloqu": 4618,
      "elflocks": 4619,
      "ends": 4620,
      "endart": 4621,
      "endured": 4622,
      "peruse": 4623,
      "perfection": 4624,
      "perha": 4625,
      "perchance": 4626,
      "perverse": 4627,
      "pernicious": 4628,
      "prevail": 4629,
      "prefixed": 4630,
      "sinners": 4631,
      "sends": 4632,
      "sending": 4633,
      "##fortable": 4634,
      "gentlemanlike": 4635,
      "mistlike": 4636,
      "sleeping": 4637,
      "quarreled": 4638,
      "quarrels": 4639,
      "burial": 4640,
      "dian": 4641,
      "dial": 4642,
      "divers": 4643,
      "frank": 4644,
      "hugh": 4645,
      "huge": 4646,
      "humbly": 4647,
      "sees": 4648,
      "seiz": 4649,
      "semblance": 4650,
      "smock": 4651,
      "smatter": 4652,
      "smilest": 4653,
      "##lessly": 4654,
      "camest": 4655,
      "boys": 4656,
      "played": 4657,
      "playing": 4658,
      "consents": 4659,
      "consume": 4660,
      "conspir": 4661,
      "consider": 4662,
      "handsome": 4663,
      "dreamers": 4664,
      "appertain": 4665,
      "appetite": 4666,
      "appareled": 4667,
      "privy": 4668,
      "##udes": 4669,
      "##upy": 4670,
      "masterless": 4671,
      "pardoned": 4672,
      "pardoning": 4673,
      "confounds": 4674,
      "confidence": 4675,
      "confusion": 4676,
      "confines": 4677,
      "confusions": 4678,
      "containing": 4679,
      "contemp": 4680,
      "evening": 4681,
      "laying": 4682,
      "lately": 4683,
      "passed": 4684,
      "passage": 4685,
      "reach": 4686,
      "sets": 4687,
      "settled": 4688,
      "silk": 4689,
      "silken": 4690,
      "wayward": 4691,
      "##emly": 4692,
      "tombs": 4693,
      "tongues": 4694,
      "becomed": 4695,
      "becomes": 4696,
      "meanest": 4697,
      "##ooming": 4698,
      "rememb": 4699,
      "remedies": 4700,
      "bringing": 4701,
      "everyone": 4702,
      "everything": 4703,
      "comforted": 4704,
      "comfortable": 4705,
      "mistresses": 4706,
      "acts": 4707,
      "acted": 4708,
      "acting": 4709,
      "action": 4710,
      "monster": 4711,
      "monarch": 4712,
      "retain": 4713,
      "retire": 4714,
      "retorts": 4715,
      "##istant": 4716,
      "fortnight": 4717,
      "fortunes": 4718,
      "delicious": 4719,
      "highmost": 4720,
      "highway": 4721,
      "discern": 4722,
      "discreet": 4723,
      "discolored": 4724,
      "flowered": 4725,
      "greater": 4726,
      "greatest": 4727,
      "bounds": 4728,
      "boundless": 4729,
      "cures": 4730,
      "curse": 4731,
      "curious": 4732,
      "curtain": 4733,
      "curfew": 4734,
      "curtsy": 4735,
      "hideous": 4736,
      "indite": 4737,
      "kindly": 4738,
      "minion": 4739,
      "minister": 4740,
      "minim": 4741,
      "minds": 4742,
      "minded": 4743,
      "season": 4744,
      "vaulty": 4745,
      "devout": 4746,
      "devouring": 4747,
      "ancestors": 4748,
      "chase": 4749,
      "chaos": 4750,
      "presage": 4751,
      "preserving": 4752,
      "sadly": 4753,
      "dispatch": 4754,
      "dispose": 4755,
      "dispute": 4756,
      "disparage": 4757,
      "dispraise": 4758,
      "footed": 4759,
      "followed": 4760,
      "following": 4761,
      "followers": 4762,
      "forgetting": 4763,
      "accent": 4764,
      "access": 4765,
      "accustomed": 4766,
      "accursed": 4767,
      "according": 4768,
      "books": 4769,
      "careful": 4770,
      "carelessly": 4771,
      "cupboard": 4772,
      "fountains": 4773,
      "fighting": 4774,
      "glory": 4775,
      "glove": 4776,
      "glides": 4777,
      "glorious": 4778,
      "glooming": 4779,
      "guide": 4780,
      "hanged": 4781,
      "hanging": 4782,
      "lean": 4783,
      "leans": 4784,
      "level": 4785,
      "learning": 4786,
      "purge": 4787,
      "purblind": 4788,
      "purgat": 4789,
      "resort": 4790,
      "resign": 4791,
      "residence": 4792,
      "respects": 4793,
      "singer": 4794,
      "singing": 4795,
      "singleness": 4796,
      "teat": 4797,
      "teen": 4798,
      "text": 4799,
      "tried": 4800,
      "trick": 4801,
      "tribut": 4802,
      "trifling": 4803,
      "undertake": 4804,
      "##ubstantial": 4805,
      "##shine": 4806,
      "nobleman": 4807,
      "meeting": 4808,
      "stirs": 4809,
      "stirring": 4810,
      "stirreth": 4811,
      "strive": 4812,
      "lasting": 4813,
      "check": 4814,
      "cheers": 4815,
      "cheveril": 4816,
      "attach": 4817,
      "attires": 4818,
      "thankings": 4819,
      "flowed": 4820,
      "honesty": 4821,
      "honestly": 4822,
      "throughout": 4823,
      "bait": 4824,
      "bakes": 4825,
      "baked": 4826,
      "babe": 4827,
      "bitt": 4828,
      "bites": 4829,
      "drier": 4830,
      "dried": 4831,
      "driving": 4832,
      "driveth": 4833,
      "drizz": 4834,
      "driveling": 4835,
      "darkness": 4836,
      "grove": 4837,
      "gross": 4838,
      "hurry": 4839,
      "hurdle": 4840,
      "lesser": 4841,
      "lessened": 4842,
      "oppress": 4843,
      "opposed": 4844,
      "opposition": 4845,
      "opportunity": 4846,
      "opposite": 4847,
      "pilcher": 4848,
      "pastry": 4849,
      "raised": 4850,
      "railest": 4851,
      "roe": 4852,
      "rode": 4853,
      "roared": 4854,
      "rogue": 4855,
      "valentio": 4856,
      "validity": 4857,
      "valentine": 4858,
      "wantons": 4859,
      "##ventured": 4860,
      "shrived": 4861,
      "shortly": 4862,
      "beaten": 4863,
      "masks": 4864,
      "masked": 4865,
      "masque": 4866,
      "depth": 4867,
      "depend": 4868,
      "deprived": 4869,
      "substantial": 4870,
      "subtly": 4871,
      "submission": 4872,
      "supple": 4873,
      "excess": 4874,
      "excuses": 4875,
      "excused": 4876,
      "coldly": 4877,
      "removed": 4878,
      "remnants": 4879,
      "reply": 4880,
      "report": 4881,
      "repose": 4882,
      "reputation": 4883,
      "repliest": 4884,
      "repetition": 4885,
      "distance": 4886,
      "distilled": 4887,
      "distraught": 4888,
      "distilling": 4889,
      "distressed": 4890,
      "closely": 4891,
      "sickness": 4892,
      "affords": 4893,
      "affray": 4894,
      "affright": 4895,
      "despite": 4896,
      "writes": 4897,
      "companion": 4898,
      "companions": 4899,
      "brotherhood": 4900,
      "returned": 4901,
      "chambermaid": 4902,
      "burns": 4903,
      "burneth": 4904,
      "cutt": 4905,
      "cuts": 4906,
      "cutting": 4907,
      "crystal": 4908,
      "dared": 4909,
      "darest": 4910,
      "darting": 4911,
      "denied": 4912,
      "denote": 4913,
      "fees": 4914,
      "feign": 4915,
      "feathers": 4916,
      "girls": 4917,
      "gallop": 4918,
      "homely": 4919,
      "jests": 4920,
      "overhear": 4921,
      "overwh": 4922,
      "phantas": 4923,
      "phaet": 4924,
      "physic": 4925,
      "phrase": 4926,
      "paly": 4927,
      "reads": 4928,
      "##ruised": 4929,
      "##ruvio": 4930,
      "shady": 4931,
      "softest": 4932,
      "softened": 4933,
      "wearied": 4934,
      "charm": 4935,
      "charac": 4936,
      "charnel": 4937,
      "chariot": 4938,
      "suspect": 4939,
      "suspec": 4940,
      "hopes": 4941,
      "armor": 4942,
      "markman": 4943,
      "environed": 4944,
      "drinking": 4945,
      "beginning": 4946,
      "beginners": 4947,
      "simples": 4948,
      "simpleness": 4949,
      "remembered": 4950,
      "attends": 4951,
      "attending": 4952,
      "##atisfied": 4953,
      "bowl": 4954,
      "bowed": 4955,
      "crush": 4956,
      "cried": 4957,
      "crimson": 4958,
      "cricket": 4959,
      "crowed": 4960,
      "crowned": 4961,
      "crowkeep": 4962,
      "double": 4963,
      "doublet": 4964,
      "employ": 4965,
      "emperor": 4966,
      "easter": 4967,
      "eastern": 4968,
      "furious": 4969,
      "faints": 4970,
      "impute": 4971,
      "impeach": 4972,
      "impatient": 4973,
      "pencil": 4974,
      "penury": 4975,
      "penalty": 4976,
      "powerful": 4977,
      "rank": 4978,
      "ranked": 4979,
      "righteous": 4980,
      "skins": 4981,
      "skains": 4982,
      "satisfact": 4983,
      "tutor": 4984,
      "tutored": 4985,
      "vowed": 4986,
      "vowel": 4987,
      "werstine": 4988,
      "woos": 4989,
      "wooed": 4990,
      "wounds": 4991,
      "weaker": 4992,
      "weakest": 4993,
      "walking": 4994,
      "##ucing": 4995,
      "behav": 4996,
      "behooveful": 4997,
      "behalf": 4998,
      "behests": 4999,
      "starve": 5000,
      "starved": 5001,
      "starveth": 5002,
      "conduit": 5003,
      "truce": 5004,
      "trusty": 5005,
      "washing": 5006,
      "breaks": 5007,
      "signal": 5008,
      "signify": 5009,
      "brightness": 5010,
      "briefly": 5011,
      "maidenhood": 5012,
      "slewest": 5013,
      "courtier": 5014,
      "courtiers": 5015,
      "prepared": 5016,
      "divine": 5017,
      "divining": 5018,
      "division": 5019,
      "divinest": 5020,
      "divorced": 5021,
      "divideth": 5022,
      "pricks": 5023,
      "pricked": 5024,
      "pricking": 5025,
      "tempt": 5026,
      "tempest": 5027,
      "tempered": 5028,
      "cheering": 5029,
      "cheerful": 5030,
      "browed": 5031,
      "brawling": 5032,
      "crochets": 5033,
      "crave": 5034,
      "cracking": 5035,
      "drop": 5036,
      "drove": 5037,
      "drops": 5038,
      "damnation": 5039,
      "fisher": 5040,
      "fishes": 5041,
      "fishified": 5042,
      "lenten": 5043,
      "meteor": 5044,
      "promise": 5045,
      "promised": 5046,
      "prompt": 5047,
      "promotion": 5048,
      "prompter": 5049,
      "sententious": 5050,
      "terms": 5051,
      "tortoise": 5052,
      "visage": 5053,
      "visiting": 5054,
      "virtue": 5055,
      "##berio": 5056,
      "##ogued": 5057,
      "##mns": 5058,
      "shrine": 5059,
      "shrunk": 5060,
      "interest": 5061,
      "interred": 5062,
      "intercess": 5063,
      "interrup": 5064,
      "interchang": 5065,
      "withdraws": 5066,
      "forswear": 5067,
      "hairs": 5068,
      "steeped": 5069,
      "angered": 5070,
      "##ashed": 5071,
      "sprung": 5072,
      "speedy": 5073,
      "speeding": 5074,
      "spirits": 5075,
      "sails": 5076,
      "sailing": 5077,
      "moonshine": 5078,
      "sometimes": 5079,
      "unwield": 5080,
      "unwashed": 5081,
      "unclean": 5082,
      "scarf": 5083,
      "scaring": 5084,
      "scarce": 5085,
      "slowed": 5086,
      "heartsick": 5087,
      "beggary": 5088,
      "beggars": 5089,
      "advise": 5090,
      "advance": 5091,
      "warmth": 5092,
      "humors": 5093,
      "consorted": 5094,
      "consortest": 5095,
      "departed": 5096,
      "hopeful": 5097,
      "searchers": 5098,
      "barefoot": 5099,
      "busy": 5100,
      "borne": 5101,
      "birds": 5102,
      "circle": 5103,
      "calamity": 5104,
      "clear": 5105,
      "cleft": 5106,
      "clears": 5107,
      "cleopatra": 5108,
      "created": 5109,
      "dirges": 5110,
      "dateless": 5111,
      "dwells": 5112,
      "falc": 5113,
      "freezes": 5114,
      "fierce": 5115,
      "hoodwink": 5116,
      "immoder": 5117,
      "justly": 5118,
      "justice": 5119,
      "meddle": 5120,
      "medicine": 5121,
      "occupy": 5122,
      "odds": 5123,
      "oddly": 5124,
      "painter": 5125,
      "pieces": 5126,
      "riding": 5127,
      "ropes": 5128,
      "ropery": 5129,
      "rapiers": 5130,
      "smell": 5131,
      "smelt": 5132,
      "smells": 5133,
      "smelling": 5134,
      "urging": 5135,
      "vainly": 5136,
      "##aker": 5137,
      "##oyed": 5138,
      "##granate": 5139,
      "##haved": 5140,
      "sharps": 5141,
      "stakes": 5142,
      "stabbed": 5143,
      "stumble": 5144,
      "stumbled": 5145,
      "stumbling": 5146,
      "stumblest": 5147,
      "laughs": 5148,
      "lodge": 5149,
      "lodges": 5150,
      "assure": 5151,
      "assail": 5152,
      "assoc": 5153,
      "assistant": 5154,
      "defy": 5155,
      "defense": 5156,
      "defiance": 5157,
      "deflower": 5158,
      "angel": 5159,
      "angels": 5160,
      "gossips": 5161,
      "gossamers": 5162,
      "changes": 5163,
      "summers": 5164,
      "expire": 5165,
      "exposition": 5166,
      "expects": 5167,
      "expressly": 5168,
      "extreme": 5169,
      "extremity": 5170,
      "extremes": 5171,
      "extremities": 5172,
      "cockatri": 5173,
      "covert": 5174,
      "covered": 5175,
      "blessing": 5176,
      "blessings": 5177,
      "blushing": 5178,
      "revive": 5179,
      "reverend": 5180,
      "tasted": 5181,
      "poston": 5182,
      "plagues": 5183,
      "encamp": 5184,
      "countervail": 5185,
      "jointure": 5186,
      "drunkard": 5187,
      "beasts": 5188,
      "commission": 5189,
      "commination": 5190,
      "wronged": 5191,
      "thrusts": 5192,
      "perform": 5193,
      "performing": 5194,
      "burying": 5195,
      "approaching": 5196,
      "fellowship": 5197,
      "learns": 5198,
      "purple": 5199,
      "bawdy": 5200,
      "groaned": 5201,
      "groaning": 5202,
      "shakespeares": 5203,
      "wretchedness": 5204,
      "carries": 5205,
      "carriage": 5206,
      "crossed": 5207,
      "crossing": 5208,
      "virtues": 5209,
      "humorous": 5210,
      "touching": 5211,
      "utters": 5212,
      "uttered": 5213,
      "uttering": 5214,
      "violence": 5215,
      "ache": 5216,
      "aches": 5217,
      "aching": 5218,
      "bleeds": 5219,
      "brace": 5220,
      "buds": 5221,
      "catling": 5222,
      "cooks": 5223,
      "dank": 5224,
      "dishcl": 5225,
      "dumps": 5226,
      "effemin": 5227,
      "fits": 5228,
      "folks": 5229,
      "faintly": 5230,
      "frowns": 5231,
      "imagined": 5232,
      "jacks": 5233,
      "lustier": 5234,
      "messages": 5235,
      "peered": 5236,
      "peppered": 5237,
      "people": 5238,
      "packed": 5239,
      "packthread": 5240,
      "pursuing": 5241,
      "rature": 5242,
      "ratcatch": 5243,
      "rises": 5244,
      "rushed": 5245,
      "separated": 5246,
      "traces": 5247,
      "traitor": 5248,
      "traffic": 5249,
      "vanished": 5250,
      "vitruvio": 5251,
      "##avory": 5252,
      "##ney": 5253,
      "##nowledge": 5254,
      "##ptacle": 5255,
      "##pane": 5256,
      "##picious": 5257,
      "thrive": 5258,
      "thrice": 5259,
      "thrills": 5260,
      "invite": 5261,
      "invited": 5262,
      "invoc": 5263,
      "##rifty": 5264,
      "haply": 5265,
      "steerage": 5266,
      "stole": 5267,
      "stopped": 5268,
      "stoccato": 5269,
      "stealth": 5270,
      "lammastide": 5271,
      "ashamed": 5272,
      "decree": 5273,
      "decreed": 5274,
      "deceased": 5275,
      "mangle": 5276,
      "prisoner": 5277,
      "fails": 5278,
      "suitor": 5279,
      "collar": 5280,
      "collars": 5281,
      "colliers": 5282,
      "ambling": 5283,
      "ambuscad": 5284,
      "ambiguit": 5285,
      "canker": 5286,
      "troubled": 5287,
      "treads": 5288,
      "treading": 5289,
      "##=========": 5290,
      "receive": 5291,
      "receipt": 5292,
      "receptacle": 5293,
      "possess": 5294,
      "unlooked": 5295,
      "unsubstantial": 5296,
      "unsatisfied": 5297,
      "unsavory": 5298,
      "unfold": 5299,
      "unfirm": 5300,
      "unfurnished": 5301,
      "plucks": 5302,
      "healths": 5303,
      "healthsome": 5304,
      "worshiped": 5305,
      "slandered": 5306,
      "greetings": 5307,
      "misadventured": 5308,
      "prolix": 5309,
      "propagate": 5310,
      "provoke": 5311,
      "provision": 5312,
      "provided": 5313,
      "professed": 5314,
      "strucken": 5315,
      "waxes": 5316,
      "grieve": 5317,
      "offering": 5318,
      "complain": 5319,
      "perjury": 5320,
      "perjured": 5321,
      "perjuries": 5322,
      "prevented": 5323,
      "hunting": 5324,
      "severing": 5325,
      "severest": 5326,
      "severity": 5327,
      "smallest": 5328,
      "torments": 5329,
      "tormented": 5330,
      "monthly": 5331,
      "discovery": 5332,
      "discovered": 5333,
      "torchbearer": 5334,
      "minstrel": 5335,
      "displant": 5336,
      "displeasure": 5337,
      "displeased": 5338,
      "respective": 5339,
      "triumphant": 5340,
      "ravening": 5341,
      "disturbed": 5342,
      "importuned": 5343,
      "maidenheads": 5344,
      "entreated": 5345,
      "trembles": 5346,
      "unworthiest": 5347,
      "beggarly": 5348,
      "pilgrimage": 5349,
      "circled": 5350,
      "direction": 5351,
      "directions": 5352,
      "falsehood": 5353,
      "counterfeits": 5354,
      "violently": 5355,
      "franciscan": 5356,
      "barbar": 5357,
      "bargain": 5358,
      "bandy": 5359,
      "bandying": 5360,
      "basket": 5361,
      "baskets": 5362,
      "catched": 5363,
      "culled": 5364,
      "culling": 5365,
      "digging": 5366,
      "digressing": 5367,
      "direful": 5368,
      "dignity": 5369,
      "dignified": 5370,
      "dashing": 5371,
      "edu": 5372,
      "edited": 5373,
      "estate": 5374,
      "esteem": 5375,
      "fleer": 5376,
      "fleckled": 5377,
      "frost": 5378,
      "frozen": 5379,
      "gyves": 5380,
      "gypsy": 5381,
      "gorged": 5382,
      "gorgeous": 5383,
      "hungry": 5384,
      "idles": 5385,
      "idolatry": 5386,
      "louring": 5387,
      "languish": 5388,
      "language": 5389,
      "lucio": 5390,
      "lucentio": 5391,
      "niece": 5392,
      "nieces": 5393,
      "pinioned": 5394,
      "puling": 5395,
      "pulse": 5396,
      "pathways": 5397,
      "portly": 5398,
      "portentous": 5399,
      "pierced": 5400,
      "piercing": 5401,
      "pensive": 5402,
      "puffs": 5403,
      "puffing": 5404,
      "queen": 5405,
      "quean": 5406,
      "redress": 5407,
      "redeem": 5408,
      "reels": 5409,
      "reeky": 5410,
      "rote": 5411,
      "rotten": 5412,
      "ripe": 5413,
      "ripening": 5414,
      "sycam": 5415,
      "sympathy": 5416,
      "surcease": 5417,
      "surgeon": 5418,
      "salutation": 5419,
      "saluteth": 5420,
      "sorted": 5421,
      "sisters": 5422,
      "sisterhood": 5423,
      "snowy": 5424,
      "tips": 5425,
      "tiberio": 5426,
      "tardy": 5427,
      "tarry": 5428,
      "titan": 5429,
      "title": 5430,
      "versal": 5431,
      "version": 5432,
      "winter": 5433,
      "winning": 5434,
      "westward": 5435,
      "winking": 5436,
      "##bbon": 5437,
      "thinly": 5438,
      "##ankfulness": 5439,
      "widowed": 5440,
      "whiter": 5441,
      "whistle": 5442,
      "whistles": 5443,
      "infant": 5444,
      "infinite": 5445,
      "injured": 5446,
      "injuries": 5447,
      "issue": 5448,
      "issuing": 5449,
      "##choly": 5450,
      "foreign": 5451,
      "forehead": 5452,
      "forsooth": 5453,
      "forsaken": 5454,
      "forefathers": 5455,
      "forefinger": 5456,
      "hazelnut": 5457,
      "stainless": 5458,
      "stickest": 5459,
      "livest": 5460,
      "livia": 5461,
      "liquor": 5462,
      "liquid": 5463,
      "limits": 5464,
      "candle": 5465,
      "candles": 5466,
      "logic": 5467,
      "loggerhead": 5468,
      "sociable": 5469,
      "society": 5470,
      "button": 5471,
      "heralds": 5472,
      "hereabouts": 5473,
      "angry": 5474,
      "anguish": 5475,
      "hilding": 5476,
      "hildings": 5477,
      "sheathed": 5478,
      "governed": 5479,
      "government": 5480,
      "choking": 5481,
      "chopped": 5482,
      "chaste": 5483,
      "chastity": 5484,
      "cherishing": 5485,
      "frighted": 5486,
      "mannerly": 5487,
      "muffle": 5488,
      "muffled": 5489,
      "prorogue": 5490,
      "prorogued": 5491,
      "merchant": 5492,
      "merchandise": 5493,
      "merrily": 5494,
      "merriment": 5495,
      "spokes": 5496,
      "spoken": 5497,
      "spleen": 5498,
      "splendor": 5499,
      "sacrifices": 5500,
      "sacrificed": 5501,
      "combine": 5502,
      "combined": 5503,
      "argument": 5504,
      "argues": 5505,
      "attempt": 5506,
      "attempts": 5507,
      "modern": 5508,
      "moderately": 5509,
      "blades": 5510,
      "bladders": 5511,
      "blisters": 5512,
      "blistered": 5513,
      "marchpane": 5514,
      "transgression": 5515,
      "transpar": 5516,
      "religion": 5517,
      "rebellious": 5518,
      "rebecca": 5519,
      "refuse": 5520,
      "reflex": 5521,
      "reckoning": 5522,
      "revolt": 5523,
      "revolts": 5524,
      "earliness": 5525,
      "whoever": 5526,
      "unbound": 5527,
      "unbruised": 5528,
      "unkind": 5529,
      "unknown": 5530,
      "unrest": 5531,
      "unruly": 5532,
      "unthrifty": 5533,
      "unthankfulness": 5534,
      "unseen": 5535,
      "unseemly": 5536,
      "unstained": 5537,
      "unstuffed": 5538,
      "unplagued": 5539,
      "unpleasing": 5540,
      "serpent": 5541,
      "serpents": 5542,
      "plainly": 5543,
      "plantain": 5544,
      "abhors": 5545,
      "abhorred": 5546,
      "absolver": 5547,
      "absolved": 5548,
      "enjoined": 5549,
      "enjoyed": 5550,
      "worthy": 5551,
      "wondrous": 5552,
      "disgrace": 5553,
      "disguised": 5554,
      "distempered": 5555,
      "procure": 5556,
      "procures": 5557,
      "strangers": 5558,
      "strangled": 5559,
      "stretches": 5560,
      "wailing": 5561,
      "wakened": 5562,
      "helena": 5563,
      "adversity": 5564,
      "adversary": 5565,
      "grubs": 5566,
      "follows": 5567,
      "follower": 5568,
      "courageous": 5569,
      "courtship": 5570,
      "intended": 5571,
      "perilous": 5572,
      "mistaking": 5573,
      "bestride": 5574,
      "bestrides": 5575,
      "continue": 5576,
      "continuance": 5577,
      "contract": 5578,
      "contradict": 5579,
      "delivered": 5580,
      "accident": 5581,
      "accidents": 5582,
      "resolve": 5583,
      "resolution": 5584,
      "shrieks": 5585,
      "shrieked": 5586,
      "belonging": 5587,
      "subject": 5588,
      "subjects": 5589,
      "affliction": 5590,
      "afflicted": 5591,
      "feathered": 5592,
      "overthrows": 5593,
      "overthrown": 5594,
      "pennyworth": 5595,
      "skilless": 5596,
      "medlar": 5597,
      "medlars": 5598,
      "angelica": 5599,
      "angelical": 5600,
      "dangerous": 5601,
      "dishonored": 5602,
      "dishonorable": 5603,
      "unlucky": 5604,
      "unluckily": 5605,
      "proportion": 5606,
      "proportioned": 5607,
      "profane": 5608,
      "profaners": 5609,
      "grievance": 5610,
      "grievances": 5611,
      "compliments": 5612,
      "acquaintance": 5613,
      "harlots": 5614,
      "harlotry": 5615,
      "holiday": 5616,
      "holidam": 5617,
      "jaunting": 5618,
      "pestilent": 5619,
      "pestilence": 5620,
      "schoolboy": 5621,
      ".)]": 5622,
      "2015": 5623,
      "://": 5624,
      "aurora": 5625,
      "arithmet": 5626,
      "acknowledge": 5627,
      "augmenting": 5628,
      "amended": 5629,
      "alderman": 5630,
      "berhyme": 5631,
      "bonjour": 5632,
      "boots": 5633,
      "bauble": 5634,
      "baleful": 5635,
      "baptiz": 5636,
      "bachelor": 5637,
      "bucklers": 5638,
      "battlement": 5639,
      "bounty": 5640,
      "cynth": 5641,
      "coward": 5642,
      "create": 5643,
      "cordial": 5644,
      "cunning": 5645,
      "contagion": 5646,
      "custom": 5647,
      "dealing": 5648,
      "dowdy": 5649,
      "dainty": 5650,
      "drowned": 5651,
      "drowsy": 5652,
      "ducats": 5653,
      "dedicate": 5654,
      "ethiop": 5655,
      "eagle": 5656,
      "embrace": 5657,
      "eternal": 5658,
      "fdt": 5659,
      "fennel": 5660,
      "fettle": 5661,
      "fathom": 5662,
      "fiddlest": 5663,
      "film": 5664,
      "frowning": 5665,
      "funeral": 5666,
      "furnish": 5667,
      "felon": 5668,
      "figure": 5669,
      "fashion": 5670,
      "fantasy": 5671,
      "garish": 5672,
      "gleek": 5673,
      "giddy": 5674,
      "gainst": 5675,
      "gadding": 5676,
      "gapes": 5677,
      "gavest": 5678,
      "hymns": 5679,
      "hatred": 5680,
      "horrible": 5681,
      "hoop": 5682,
      "hooks": 5683,
      "https": 5684,
      "harsh": 5685,
      "ignorance": 5686,
      "jaws": 5687,
      "juiced": 5688,
      "journey": 5689,
      "james": 5690,
      "jewel": 5691,
      "keys": 5692,
      "kept": 5693,
      "kitchen": 5694,
      "lineament": 5695,
      "large": 5696,
      "lisping": 5697,
      "lenity": 5698,
      "lurk": 5699,
      "lengthens": 5700,
      "matron": 5701,
      "morsel": 5702,
      "meager": 5703,
      "mowat": 5704,
      "midwife": 5705,
      "milk": 5706,
      "michael": 5707,
      "mourners": 5708,
      "mongers": 5709,
      "measuring": 5710,
      "mountain": 5711,
      "mixture": 5712,
      "naked": 5713,
      "nipple": 5714,
      "narrow": 5715,
      "nuts": 5716,
      "nourished": 5717,
      "nuns": 5718,
      "nickname": 5719,
      "napkins": 5720,
      "nuptial": 5721,
      "numbers": 5722,
      "osier": 5723,
      "owes": 5724,
      "operation": 5725,
      "overset": 5726,
      "obscured": 5727,
      "paul": 5728,
      "poultice": 5729,
      "porter": 5730,
      "pomegranate": 5731,
      "pentecost": 5732,
      "peevish": 5733,
      "pantry": 5734,
      "pouts": 5735,
      "picks": 5736,
      "paper": 5737,
      "pipes": 5738,
      "phoeb": 5739,
      "purchase": 5740,
      "pupil": 5741,
      "public": 5742,
      "punto": 5743,
      "ribbon": 5744,
      "renowned": 5745,
      "rites": 5746,
      "raging": 5747,
      "rearward": 5748,
      "rigor": 5749,
      "rancor": 5750,
      "rattling": 5751,
      "rooteth": 5752,
      "sorry": 5753,
      "senseless": 5754,
      "seducing": 5755,
      "seasick": 5756,
      "squirre": 5757,
      "senses": 5758,
      "testify": 5759,
      "tassel": 5760,
      "tilts": 5761,
      "tuners": 5762,
      "teeth": 5763,
      "tithe": 5764,
      "tigers": 5765,
      "tickling": 5766,
      "tetchy": 5767,
      "tartar": 5768,
      "tiptoe": 5769,
      "umpire": 5770,
      "voices": 5771,
      "variable": 5772,
      "vessels": 5773,
      "victory": 5774,
      "winged": 5775,
      "wolvish": 5776,
      "wanders": 5777,
      "waddled": 5778,
      "yesternight": 5779,
      "yellow": 5780,
      "yielding": 5781,
      "##ienced": 5782,
      "##makers": 5783,
      "##porate": 5784,
      "throats": 5785,
      "thievish": 5786,
      "thwarted": 5787,
      "tossed": 5788,
      "together": 5789,
      "topgallant": 5790,
      "wheels": 5791,
      "whereto": 5792,
      "whoreson": 5793,
      "whispering": 5794,
      "shunned": 5795,
      "shaped": 5796,
      "shoemaker": 5797,
      "bewitched": 5798,
      "infectious": 5799,
      "inundation": 5800,
      "inherit": 5801,
      "inexorable": 5802,
      "inauspicious": 5803,
      "incorporate": 5804,
      "melancholy": 5805,
      "haughty": 5806,
      "stools": 5807,
      "stroke": 5808,
      "steads": 5809,
      "startles": 5810,
      "stifled": 5811,
      "limping": 5812,
      "caitiff": 5813,
      "aspired": 5814,
      "assembly": 5815,
      "sojourn": 5816,
      "sovereign": 5817,
      "heretics": 5818,
      "weighed": 5819,
      "doctrine": 5820,
      "maintains": 5821,
      "mandrakes": 5822,
      "deformities": 5823,
      "dexterity": 5824,
      "anselme": 5825,
      "anatomy": 5826,
      "chapless": 5827,
      "chiefly": 5828,
      "christian": 5829,
      "mumbling": 5830,
      "prudence": 5831,
      "predicament": 5832,
      "practice": 5833,
      "predominant": 5834,
      "familiar": 5835,
      "paramour": 5836,
      "alligator": 5837,
      "uproused": 5838,
      "upturned": 5839,
      "execution": 5840,
      "exquisite": 5841,
      "experienced": 5842,
      "exhaled": 5843,
      "necessaries": 5844,
      "nephew": 5845,
      "neglecting": 5846,
      "special": 5847,
      "sparkling": 5848,
      "spakest": 5849,
      "spheres": 5850,
      "safety": 5851,
      "therewithal": 5852,
      "tyrannous": 5853,
      "benefice": 5854,
      "benedicite": 5855,
      "orisons": 5856,
      "coachmakers": 5857,
      "cophetua": 5858,
      "swifter": 5859,
      "swooned": 5860,
      "arbitrating": 5861,
      "atomi": 5862,
      "blazon": 5863,
      "canopy": 5864,
      "martyred": 5865,
      "marvelous": 5866,
      "martino": 5867,
      "truckle": 5868,
      "trumpet": 5869,
      "treacherous": 5870,
      "revenge": 5871,
      "request": 5872,
      "reverso": 5873,
      "rebeck": 5874,
      "reconcile": 5875,
      "reclaimed": 5876,
      "posterity": 5877,
      "unadvised": 5878,
      "unreasonable": 5879,
      "unattainted": 5880,
      "universal": 5881,
      "unnatural": 5882,
      "uncharmed": 5883,
      "uncomfortable": 5884,
      "artificial": 5885,
      "scope": 5886,
      "eyeless": 5887,
      "pleasant": 5888,
      "placentio": 5889,
      "abraham": 5890,
      "enamored": 5891,
      "enforce": 5892,
      "engrossing": 5893,
      "enpierced": 5894,
      "twinkle": 5895,
      "twisted": 5896,
      "conquered": 5897,
      "conjured": 5898,
      "constrains": 5899,
      "concludes": 5900,
      "consequence": 5901,
      "concealed": 5902,
      "conveniently": 5903,
      "slugabed": 5904,
      "sweetheart": 5905,
      "quivering": 5906,
      "qualities": 5907,
      "disperse": 5908,
      "dissemblers": 5909,
      "discharged": 5910,
      "dismembered": 5911,
      "breaches": 5912,
      "braggart": 5913,
      "flourishes": 5914,
      "misbehaved": 5915,
      "mistempered": 5916,
      "misapplied": 5917,
      "miscarried": 5918,
      "awakening": 5919,
      "closet": 5920,
      "clothes": 5921,
      "banquet": 5922,
      "bankrout": 5923,
      "properer": 5924,
      "prostrate": 5925,
      "prodigious": 5926,
      "======================": 5927,
      "stratagems": 5928,
      "erperch": 5929,
      "affecting": 5930,
      "earthquake": 5931,
      "admitting": 5932,
      "admired": 5933,
      "adjacent": 5934,
      "grindstone": 5935,
      "anywhere": 5936,
      "betrothed": 5937,
      "grasshoppers": 5938,
      "headstrong": 5939,
      "apology": 5940,
      "bescreened": 5941,
      "wrenching": 5942,
      "eloquence": 5943,
      "perhaps": 5944,
      "prevails": 5945,
      "seize": 5946,
      "conspires": 5947,
      "considering": 5948,
      "appertaining": 5949,
      "contempt": 5950,
      "deliciousness": 5951,
      "ministered": 5952,
      "disparagement": 5953,
      "purgatory": 5954,
      "tributary": 5955,
      "drizzle": 5956,
      "chambermaids": 5957,
      "overheard": 5958,
      "overwhelming": 5959,
      "phantasimes": 5960,
      "phaeton": 5961,
      "characters": 5962,
      "suspected": 5963,
      "suspecting": 5964,
      "crowkeeper": 5965,
      "employment": 5966,
      "satisfaction": 5967,
      "behavior": 5968,
      "maidenhoods": 5969,
      "intercession": 5970,
      "interrupt": 5971,
      "interchanging": 5972,
      "unwieldy": 5973,
      "hoodwinked": 5974,
      "immoderately": 5975,
      "assailing": 5976,
      "associate": 5977,
      "deflowered": 5978,
      "cockatrice": 5979,
      "dishclout": 5980,
      "effeminate": 5981,
      "ratcatcher": 5982,
      "invocation": 5983,
      "ambuscadoes": 5984,
      "ambiguities": 5985,
      "prolixity": 5986,
      "barbara": 5987,
      "sycamore": 5988,
      "transparent": 5989,
      "pennyworths": 5990,
      "schoolboys": 5991,
      "arithmetic": 5992,
      "baptized": 5993,
      "battlements": 5994,
      "cynthia": 5995,
      "fiddlestick": 5996,
      "phoebus": 5997,
      "squirrel": 5998
    }
  }
}